000000000000000000000000000000fb
0000000000000000000000000000003a
00000000000000000000000000000004
0000000000000000000000000000000d
000000000000000000000000000000ba
0000000000000000000000000000000f
00000000000000000000000000000095
0000000000000000000000000000002f
0000000000000000000000000000003c
00000000000000000000000000000098
00000000000000000000000000000004
000000000000000000000000000000c7
00000000000000000000000000000046
0000000000000000000000000000004e
000000000000000000000000000000e6
00000000000000000000000000000031
00000000000000000000000000000033
00000000000000000000000000000040
000000000000000000000000000000bb
00000000000000000000000000000054
000000000000000000000000000000c5
000000000000000000000000000000ad
0000000000000000000000000000000a
000000000000000000000000000000f8
000000000000000000000000000000f0
000000000000000000000000000000eb
0000000000000000000000000000003c
0000000000000000000000000000001c
000000000000000000000000000000be
000000000000000000000000000000a9
00000000000000000000000000000009
00000000000000000000000000000017
00000000000000000000000000000065
00000000000000000000000000000011
00000000000000000000000000000073
000000000000000000000000000000a2
0000000000000000000000000000000f
00000000000000000000000000000021
000000000000000000000000000000cc
000000000000000000000000000000ea
000000000000000000000000000000e2
0000000000000000000000000000000d
000000000000000000000000000000b6
0000000000000000000000000000006a
00000000000000000000000000000031
00000000000000000000000000000026
000000000000000000000000000000a7
0000000000000000000000000000001a
0000000000000000000000000000008e
000000000000000000000000000000d3
0000000000000000000000000000003a
000000000000000000000000000000ce
00000000000000000000000000000010
0000000000000000000000000000002f
000000000000000000000000000000cd
000000000000000000000000000000f7
00000000000000000000000000000037
000000000000000000000000000000cf
000000000000000000000000000000c3
00000000000000000000000000000014
00000000000000000000000000000064
00000000000000000000000000000012
000000000000000000000000000000f8
000000000000000000000000000000b3
00000000000000000000000000000066
00000000000000000000000000000029
000000000000000000000000000000ff
00000000000000000000000000000003
00000000000000000000000000000059
0000000000000000000000000000008c
0000000000000000000000000000002a
000000000000000000000000000000e3
00000000000000000000000000000084
00000000000000000000000000000027
00000000000000000000000000000016
0000000000000000000000000000003d
000000000000000000000000000000c1
000000000000000000000000000000b1
0000000000000000000000000000001a
00000000000000000000000000000054
00000000000000000000000000000047
000000000000000000000000000000f1
0000000000000000000000000000000c
0000000000000000000000000000001e
00000000000000000000000000000024
00000000000000000000000000000043
00000000000000000000000000000014
0000000000000000000000000000002d
000000000000000000000000000000e5
00000000000000000000000000000081
000000000000000000000000000000fe
000000000000000000000000000000ca
000000000000000000000000000000e1
000000000000000000000000000000f7
00000000000000000000000000000033
000000000000000000000000000000bb
00000000000000000000000000000059
0000000000000000000000000000005c
000000000000000000000000000000e6
00000000000000000000000000000039
000000000000000000000000000000ad
000000000000000000000000000000ff
0000000000000000000000000000001b
00000000000000000000000000000045
00000000000000000000000000000047
00000000000000000000000000000001
00000000000000000000000000000095
0000000000000000000000000000000a
000000000000000000000000000000c9
000000000000000000000000000000b2
000000000000000000000000000000d2
000000000000000000000000000000a7
0000000000000000000000000000002e
0000000000000000000000000000001f
000000000000000000000000000000d4
00000000000000000000000000000022
0000000000000000000000000000000e
00000000000000000000000000000033
00000000000000000000000000000045
0000000000000000000000000000004c
00000000000000000000000000000093
000000000000000000000000000000f3
00000000000000000000000000000025
000000000000000000000000000000d7
000000000000000000000000000000c8
0000000000000000000000000000002b
00000000000000000000000000000005
0000000000000000000000000000001b
000000000000000000000000000000ea
00000000000000000000000000000083
000000000000000000000000000000dc
0000000000000000000000000000001f
000000000000000000000000000000f6
00000000000000000000000000000058
00000000000000000000000000000045
00000000000000000000000000000039
000000000000000000000000000000f8
000000000000000000000000000000c5
00000000000000000000000000000018
000000000000000000000000000000d9
00000000000000000000000000000008
0000000000000000000000000000009d
000000000000000000000000000000cb
000000000000000000000000000000da
1ede31ce19dfe9134bf3d03bed1f150c
fecd15eb05c30cd5e910fed1211ba1d0
1db9fee6fbf359f914fb09d7e9b719dc
edd50b1b00e0c9dd29f6dec8def0c028
d1f62a1f3aaa0af4f010f2fbb9d5d7ff
07fe2cd6cbd8ec0ee4e8fbfdcad2c806
0528eaffad00dcf7e2ffebfdf20f030b
b215fe01cbfbe327f2f6fc2b11fbf9f8
180ee6170d0fa44cdcd10919f517e619
cefcf108f3e1f404d804080ada0cffee
12f710c41135e514160b01f02d05f3e7
eb09fad4ea29fccf040b0909f7fb11d1
30f7f7c431dffacff0f500fafbe7042a
011803e4f0ebf6001adce12af2332d05
dce4cc99da231b09e8edee02130b06e7
281f13ecf3f6d90cf420cd05eecadb08
c41623c3f0dfd30203e907effb69043d
dadbe608151bda1202e6c5f5373c050b
fafbfed4ed08c526ebfdc5f608f4d9cd
c5edf4d018f8d4da0708da40ed0c0cfe
e51a1b1b07ecf5f70b06ea1101faeb10
d4e2f9ce02081c09191fda030dddfd1a
0b07c6fe10ff0f07d8f00c001cf72106
03efe5f2061a4edcf20bebe0350d2dd9
28fa0a16fef10dfec904e5f213e7e3e5
ddc70eb00af1200bfaf6ebfc1ff508da
ce1509e5ffe610f5e8ecf40e0a38df2f
ea15e6dbebfdfff8fe281efebc1d09dc
fefbf6ff0d27f109dfdffafef6e041f9
0610d0f3e129dcedc70cec21ee21ecf7
06d7f6e71eea35d3e302dc2cf80cfdf9
f3ef0b08180b08ed0a0105f2ef1cfcbf
fedfe2de28f318f80c03b4fa1cfdfafc
d6f41817e5f51ade030ae3e51781e0dd
f7c636b913aa02e517fad8e4c4f1f2f3
dcd54ad3eca80ecf19dee92de6080115
f0e1f2f40609c5fe05d4daf9bdc6e20a
efe200f11dcfc1f1f7de100702020721
d3140000cee001f50f170e0c0a060f2a
c504fbe4f2d8a300cee70203f1eb06f1
000ff7fbf819231e04f91416fc19ecf0
ed020224090e1c23120a29fe10e7210a
c002d60f0800f619f73cde1312eaeafa
a710deea01eb30f93407f1faefdc1705
4a0d0412ff153e0ff0fa29ef05fe0c2d
f9fddcc7281f1b0938d9f90e120b04fa
f1e2c6c1bf370f20d2d4e701dbf1340a
e20fbdd7ede798e58e0d241ddf19d9ff
ed1e21fc1f0420f8fafb1c00daed0b38
08fec9def6f1dff2eebfe11e33233cd0
2728bb1a0cf9c1fde310c3212edd06d6
1adbdaee0af31706e0f2d8381608f701
e40d2c201e01f6f32917bfef0a65f1fa
e9f3e6d3f5ea0bf0d01b0ef8f830f203
f5ca224e0ffde9f016fd2bd5e515fc10
e71b0a2922efdbf201deebf6f3fa0609
e4f40319e414e50f0a050117ff1c32fa
f0cd07f8f0ddecc327d742f2e7bedbf4
f20df0d9f8e3edf1f3110ff6ddeaf0ff
da071b0b11fd0b1df427d4171d2f0123
01e018eed4dff7d906e6fbb6d2cfdeeb
fcd01ad4e3b3f0ae0b02eacffbe1cafd
d8fd2bef0bd8f5ed2bf91df9d60feae0
e2dd1ef11adb1503efefc8c3ebd91cf1
e2e9e5cc03bf11fd2dd5bad8b8dbeb0d
d30ef6fef5cc06f2fdf5fd19e0f2ff0c
fee8dffcc9a8fce9fed90d22b2f30941
da36fa05f5cc1ee0ddf1f910f30ae50d
f316eb4ee21d1d0ef8093d1226f30203
191f03360bf6bbcb08ea1b1608f4d5fd
e4221103f2f4f3060d252004111029de
ddffe3260aef4e1327f81026de0b040d
1a0d05f3f4f3e622490be4ebc8f8e7f6
20bfe70508dfdfbc21efdefee8e7f11e
22d527b9f1c6f1b31a00dadbdfe6e122
f5ece422dff8d016d3e204fc04fcfb46
a5d6f002d01e05fae10e0f0afb13f6f3
c5ce21a4e901f90af611fbc7e6b5f3ca
021f124ffbeabcf0f2f12e1eeff408ff
deeda42fe80a062500f4ea0c14f12cfd
b9efccf4b423fb08fbfbe2caf308060e
ef0b060540d9001336f9f2ecfcda0026
df0125b716f62d060303e418f9fffd31
c2ee33c31921f80e122c152f12130215
22f300ed1bf6c7da06d1eb19f7f8fb2b
03e109c51af2bd1e1b0de5f7e6d7fd1d
cf2219c7caf8f4f70c16f325161c0a1f
f32b3baddec0daf7f2d8ddf5fdd822fa
110308ce06c7ebedfb0bfe0c0fe4fa10
e610240d0209f8ea22032125e53f1511
2dd1f6e02efb24ed15dfc210e7061ae4
0bf5f20f292b26c2c0c9c5c32017f3f1
f6f3251b08fffacde80108c3f5ffdcd9
0bf9ece42af51dd9f70616fc21471410
e210cb240c0103d7becff0ddf0dbe5e3
43ead50c1602f1d1ddc4faf7ffbbd7dd
2bc9facbfce21dd6f5da01ebebf8d7f1
35e1e602f2baea01d6af40fa0c370ce1
0a0b30ea480dce1efc191720f50a062e
02e7fce702d228df1bdafdd6f940fd2d
0c1e36cfe7e70a15050d0e1eefdc0713
250717e0e4de120c1ff8040ef626ec1b
06adfdfa023202ca000bd2d8dedee311
07b3071614dc0faa09e603c0f3c0bdfb
1fea151f2fcc0aaf17edece110cbe0f1
f609e8f6f407ea24da40fe0b230b07f4
b5da0ee6d10205281626e3f603d9e1c1
05c407f2e00818d1f80489cd0be3afff
0c35ecb21200330225f922f6f9e902d4
35d023ba1ecfd41314f2fbe0f7c8de12
0d192ac1078fead019ddd9e9f50aebf1
e7d3eccc091cdf23f42eedf4dddbe103
f603efc804f4ec00b80ef10603c4edf2
22072bb9cf08ebdffa12fafe0de5151a
a8faf9e11b10e219d9d3f2260fec4be6
cbe1dde605f9e61bd829db32032413d1
0e32dc1bf01b0d15f00bec01220520e6
efd1ef07f9bbf5f305f633f3043ee206
07260b02a9d9edeec1d3dfe8c814d309
03eef51fcb15bf1ee30407150d25f6ea
fe0bdc0c0fd4cbb7d1b63312ed08ed2f
f523e326fd00bcddeaf4f82807f800dd
ec26e32fdaea0339f6f3141df5fb0def
0216fada0cd3f2b32309e6c5c0fdc5ea
fe17120909e0c4e0fe030de8fd0e260e
1dff3b060e14dcfc281c5606fefeff07
fdd3c5c813192afd0c0f0cfd19e720dc
d9d9eefe3200f2ed08c304fd2cede5ee
e6e5f4cd03e7fff729cee7ea1fcee7ce
f0f5eefaebee05fc1203f4e1bcfa18e6
fbf8e2d6ffdfeee917e5ef24df0ae7d8
deed01eebffe09f40afce8e00d01cbdc
0913dad1ea0fa71ff10c0b1afebee502
f43f0beed5dd04eff7ebdb040ae0f20f
f3120ab40d2f14d0e317ebed19f9f911
020fd6de05d709f208f934e903210de1
1d36d3e322262cef02fa01201d2e000f
0a12ea2314eb0216361c111c01f90613
6316230913d82ad8e9ed06eee015dd2a
25122f10fadb04fafbf02b12060fce01
1befed390f122ee60cde11ec1c0510e2
14c9c7e320b90ce904f2e3d5dfa1dee7
06c20ddadca00dd00ddef6f4f312f8e0
05bafe03f2df06cbf5d8d4a9ebe3ad06
07f40c2509fe152d0a32fd1fee3a14f7
23070ec3060ef2fce30a0211110df739
0bfdf6d60f181fbf09e7d807eae103ef
f7f306e4260efef6021717fc2013dc0e
e91608e7f308083fe5e5e9f9fadbe41a
d6ef04f503e425ddde14bd1ccad60ad1
fa1e14090f21ecd70fe701ede8ed002a
fd0917e50e01db34ff03ce1fe0080413
edf11f040ce512cb030fce2ce4e4f7bb
02f3191214df12e0eb131d19e317270a
08f5fb06f2bbecab090009fc2f14f8c6
db1815eedcd6fb020704191829192c04
11d1f3cbe30ce7e0f6e8e6011407f7fe
f400ecde06db030716f60bd21d02cefc
eaffedcbede62aeffa1a07fa15051fdd
ec10eff1c5131adf2a2402f205013df1
c2ebcf0bede10b0b18120409e7ef2dc4
fd17f9fa17f25102e833d5fafecd10df
f314fcd1fb38e3ebe214d5edd20bfb0f
e4ea1214fbf919251016f81ffbed1f19
111dc1ba012908e80705f9d6d60511fd
eb121b35f808f418e1dc28e100fbeed0
f2faeef404fa2506ef10c60a08bae4d6
f80dfff906d40df3e20a01f323f115df
f81cf7e1e73403ea39e22ce408da0005
0b080dffe9f7fb3e0e0df30ddaf7011f
dcebf020f7e3f32ef81ebaf8e9ed0518
f6fc29de0a1a24e106eff009dd17e9c8
fde113e6110bebefeb0a1c15140e24ce
02ed08fe3d0c0f0c0e3edb06140615d2
0419110b0c08ea1f0217f00002e70009
2bfee9f21fe71908cd0cfffd23fee610
0ef7e8070bd32410d21fe3ea2b00ca16
c3c219f60a0ecde5eec024eaebfff7e3
fbd6de3ae816021a2fecdeedeff2fd3d
dcf1ec4d1bd6e71f1cd2f6faf1e00222
1324f7e0e2051a05e9f8f5f81516f1f5
3d2cf3dc02401efee3091cc2332f29f8
0c24e4f71d491102ccfd1fdffcfc0bd2
140329e00d0417e6ee0bffcdca131607
f2fd1017100af50bf4f4dcf2ebcf04fa
ffeee0d413c746dd0715ef0afef618e6
deda08f0150ae6cee9f6f6d11acffc07
ce0fec18e515fcee26df04e9d2d31903
f611e7eff7e3d71be910f5ead800d0f9
0de2fbd1f0f7ebdad3ff0f06e7ed1dee
de07c9d4fe2ce203c2e30af8e9d3f8f1
ed281b22fc0630f114eec40c07e907ef
1504f0e0d332f80ee6fd15edfe0ff3fa
bae3d609e926edd0c7f002e9bbde0dd3
daf31c021004210106edeb1ff0f304ea
1230fb0a033f0528f5e22f06e9ede8fa
cf0ef913fff50400e7f5b218b2e6f9fa
b7092500e2ede7f82ae9f334dfe220fe
09b0f8e708fa08f1f42b1e0832f2f915
f00d0e0df7f3ea06f5f905fc0c23202d
030cf214f306f410e0c3d931dc1c1714
29ee2eeb0a08f5d60d010507fbd9fb3a
152003ffdbdf19e9220adf07e907fafb
00caf7d6c2edf20efedb0f2d093331f0
18ff19d2fbe3f5180a47d8fbe5ec0cf3
000400dec70ff7ee1216c30b02d7eef5
f0f806dcfaf42c051a09d3d812110dff
26e9f3150c16ebedf4f13c0a0b121d09
21fd15080917eafc09e107f6231ee115
f00b09d4583d19eb0d01f6bf0ce5d308
0136bd272cedf90ff513fbd813041d1a
f019f7110db4ef0ddc17f1d7b6dfe2eb
14eee3ec26e1fee1e6f5b9b8bec3d237
d4fafb1306e3263d0700f7ff1617032d
e70afbfd061be4fbeefe1cef131514cb
e1d6ec0cdcb8b300d1c1f78cd6b724ae
1835e020210ddd050df7f400de450e2b
0fe5f4ed09ece5e2edefe425f40e0af2
ee0ec4c803fbd0fbd1c80bf723e6d509
07ee0ee514ffdc2d0c2afd0b2c0cec19
eaf214faf2faf5d817d7d500fb141702
e7140dece3d8ff07fa0b03cae9f321f8
d8f5c82aebace5221c0beb05cdfa09ee
f3020ccde6daf8eb11f7ebf1d2f8ea0d
262b02e5f8fcff07011bf7f921f4f7e6
fe04b211f419fe2c06ec091b1447ece5
c00cee1120e71bf4081b01e90cff38ed
f0fef3fbe5d537acdde40503150dfdba
10e512f5ec0a1e28f6c60aca1f14d80c
061219f9e70d0ad91a13d710d301fbf9
f7ece4c8c908fcca0f22d6100e1ddd94
f0c416f705f31be12bd7dc09e1da0702
e70efad729fb03f11601fc15c0dff905
37ee11df2b3e140cf00ac3e807fbfeca
f5dfd9eade07f6d20d211df418ced5d5
e4171b01c60709da13ece5f3c111f9ce
00f81612b12afec74b003718fdf6daed
ffca2ce7100b3cbb16f0e60801f607f7
d60909def6efe1ef19d0dd0b120d30c4
c5ec030dc8fce90516f4230efdeff4aa
effbff150b050e1ae827d4e70abd11c7
d1fa0fd4eda71b0dd43bfafb00fd4d81
c9f4f202b3e20af5ec0d39e70b3301a9
ebebfc05e8ee05040afd0a1fe6f32003
fed8f702dc340af9060d0f2df723dd10
f436f0c804f62206f61112001bf9f5e7
0c01000fe0eff7d70c01f4f81a17dd1e
02cce00ad2fdebd4fcd9030e08e101e3
db0bef0fc8fb180f2ed7d80eb121f7e2
fae321f11ef3db330b29d0f9fed2fc12
081a0a5208301bd0e001faf90612f405
041a09facfb901e3fb079413eb291be6
fbe4eb08fb06011ed4d9e6ec1a060b05
b8edcf0cf6030afff2fe0810ded30ef5
f62bee32abfee0dd11c31effe4150d16
efeb0227fb0ceed31bf1213de721ebfe
2ff4ee09e2f3e61218e80c01191a21e2
120ee4e808e60d0de0f51d20fd03effe
091ed6cf1a010acc0a0ec4e01ff413f8
07ffe6d313ec0c02f2e2e9e50a1418f8
232329fc0cf007effb13e7ec48db060c
17d709d9fc0dfcfa2aff19dff8f8ef11
2b012aefec22e3d401bdf7d7e410e410
fa20b7ff332fb61aede0dde824eef126
130aeee8e9d5ff0cbf02f0eddde5cafe
24c925e705f61df3450be911db0dfd01
fc070f1dd2291139320809121b1bf427
0accf1fe0400ea1005dacbe0f3e2d7f6
dd02f1121ae7f3c42219bf14ef05f5ea
26e532e82ad70313ee292c351b23481a
e6ed3711e919f1082700e9faeb0d15e6
0808f4ece4feed32f5faf9eaf5eef8e3
30e1f2ed242eebf9ffffc5fa1fe105ea
fe030702c50f091fef36081be8f703b6
d00c06dff8f0fb27e40d34e5cc0c1ecd
d7d9022a14f812ebe5c9e7dfc4d81312
ec08da0de40118de0e17ff1be01814da
ff0a310deaf5f901b10e2dfefb291ff2
a1f0ed22c010090117d8ec2d96e313d9
d6f8ea07f90805e6d924f00f19fcfeea
d62ef50112b8e521e5fe06d70d0823eb
311ad2382ccf0013a71fe4db171e0628
2619db0c311fffddfee014d1f5fcec1c
daf7e0093fe4f701de1f25f1f0270711
f614e81a35d0f208de183bec01f60823
08f82410f308f116e6beea0107f1df11
0be9f20806d0e6f72c0ff5eff6fd0fe5
f6ed010200ab0f0eff171af0192b2905
00fe02cc2cc2eedd12e1bf0ae9e8eefe
ebebe7ac00050ad3160d0608df15f0f6
fc40febe062df5d0a7ffd0dfedebfb14
ea23e501d5eb0310dcf608003ae6e8f3
18eb031503ebd3e9e7f2edf6f2e92807
e44c163fbc30102503da1c15e0fb061f
2931dee608fad2d6c1eafae2f6fbe90a
1d07f0f3fc02c51ce7edf6e9161bd10e
461309d415041afb0636f214341800db
d2e4c32cf613b7fc0cd609ebccedcb17
dd06be0ae8e5b815e6d9ddd7ebaee6e9
0ec2dbe81cf69a09a703e9d6f7f2e4bf
16191a0efdb6f7eafbedef05090ff9fb
1432ec3024abe930f4fce62209fbef40
ece2031e39dce204c513d3dc19ce14e7
e3ff43f424c9111f2bec0d1000034925
d6fc1bdf2cfd0d11040711fcf817f106
cce6e3183bbf250ad7f9fdd7ede9e311
e9f10ae0e631fbc212dcf20d17d8d5f4
fa08d50cf9d7e61df6f9111111ed090d
f516f0140606d829e9c91bfe05e8fcda
f713cbfab7fd100921e300fae90ddc0d
f411c404fbbfee170f2cf8f630f9c513
d92bfe041cf50f110a0414ff132dfa06
05eac5fad109cfdcf0ea28f40f1503f3
070206fee9f81602e5e8f41ff5f703d3
fa0c18e21a0800f6df20100cf8221adc
a8191ef701d2380f1511ebe901081afa
eff2e4e413f7f62efcdc1bdae21efcdc
f6f8ede616e0c400e35f16900815ee1f
30f84df81dff1df62327e81601ff25df
0200e5f3f914c800d90b0d2607f006e6
ed2007ebfe0ccaeed41e21a1f4eeeaf6
3cfaf5e5294deff11132240312d31bfb
f9fdcec5fc2105ba0eec09eefbf3061c
ec0d3bdabe29dcdd02ee10e5f505e70d
a90d27cfeb1b17dc25efe3ffcaf4e430
f007d1b1db22000be4d8eae7f81be9f4
2a0000d50b40ea04b0fbf5cb1119ecdf
1ac83df4fb3de7011fff0818062cf3e9
1f04b60dfd16e81df71421f4e0f8d0f2
2a33e2f81ee6ed2bd009ef1809c7df0b
e738f30100e1c9ea09eb06fffd14fef2
13ea950b05f4ee0b04ec26e23c03cb0b
26f4ba03fcf7f1f6c6063de12ad449fe
fee2cae7fafee11bfdea21f4ef021318
f0eaf60f1701cdefb3f406d4e805c1cb
cefd6236c2271810feca0916de0c0007
dff7082a2c0ebff5f0ff0214ec0e17e5
d6f40307eb100aee06f30efceffae901
f0fefadcfdf426d80ef44c230a1eeec4
be1ff20d97f8e315e5da320ceaf80409
e1fc02f6dae3fb20001001f6fe05defb
01dbf1d011fe1ffe0605c407f6e529dd
fcf1c2fa08f8db2a080a14ccead392fc
cee22b10041bf607fa00f507fbf1d5f3
12f20118ebebe5e322f2b628d40ccb61
13d9161b0f05c40f07efe02d14d1ec13
f81f01ccf5cc18f4f3071703da0bead9
310d35c51805dceef1153e0406f1fcf1
0ce42ce0ededb8ed0602e9eb16fb2013
2110da0318fc1ac8e20b07ee132b0932
14001440cac60424f3fe1de2f5d3f7ea
ededefdc02efb7cffd02f6fb01eac5ec
e23ec62fe6b90300d9011a1229e00dff
ddfbec39ebcf2c07eff7e9f8ffdb31d4
1df112e007eafcf11e222bf8061a17ee
22d9de3501d90927d51100f7f7161503
cd09fe13cfe320dfd6f5231bef10f7d6
f1eadd260ac8160dcd111ff8fef4fef4
f80ef820dec41dfbd9d3e51900f0111f
092abbf9151c11e8e2fa06f8232a03d4
ea020f2cc3efdafed0f5f2f2ec0fd9b6
1d03fa350016e5db0bd5cce6f8e406ea
f50e0805ec0b1e0719bf020dd8efbe26
e7e20bdb24e30af8dd2b50cf07141c0c
e305ee1214cf040fe3f9f71f021ff3f1
fbffe20cffd1d2de0cc9ff0021fcf90d
07ea29fa01153f2df9f524fe1fff3906
ec2614f0012c011f09edf5d5f6de1505
3aee2117fe08c60a2beaf6f4eef1ddcd
1005b81711fff9fac81326f8261f15ee
fb07ccf4ddf60110c6f6033b241e19eb
ec0e060fd7eff0fc18131e05dc0fe11f
0deae71be6b70e06eee1ead838f4d616
310bf300e0d3240029de101d07f3fc21
1d1bed22c61cf6db09d8071f1bff14f8
080cf004d7f0c7f315fdf32103f9ff20
edfdff05cdf5deeb0ceef51a11250f13
1840e5ddd4f6ea03f3e7ecfafb18f3bd
1008eddcc6e60febf9d528080e11f200
fb0ce0140eccf3efcaf828e8331d0d0d
0508db370decdd10f4faecc713122b0b
170eea0eeaff211902e40c0f10e01011
0bdfdae20cd904e1f5132bed2f1130ca
e3d7ebc708c4f819031d1afaf9001cd6
091f1cdca60fe53740a5f618ec5b34ea
f9080bead6fbf9d001f5f80d070cfdd8
fd0914e1e3141db40408121d14eff00c
0c2efae61a0a1f0afdfae4f712ea3207
ce1502f611da16f60429f10fda1c22f8
e8030a20da19ddacfbe61309f6f8d9ec
08eaeb170710192407e9d81b0e13ebda
ce1f1cd2c024f7f019b40523d917e2f4
2aee0ce2fa24ec2005e1121df0f3f003
f1f9cf0baef016090fcb1023d315ff10
dd0315ede21fd41222e23ad2ec0ccedd
d6222100c711f8f12bff1028fc0ee40e
ed06c8f300e803def81300f215f5f5d0
feef1a2fe9cd1120f1ff1705e92d1acc
fef003140713040715e3ed27f92316f6
0311e7d4f4c0d60ef90812e603f9e70a
140516bf25e8edea072c20d510dcfc08
063993d1f20406d807fe4b1011093bf7
e6e1edd222c119b9fe02f0ee18ec0fe7
b0e4febe09c618f5d6090112d6f931e9
f613ca0d19e3d00bedfcebc717d5e1fa
39f0f5fede022edb04effefc12e30820
c41b0d03df1d16cd37faf606030ce6e3
fa0000120202fb0943e22c200a05110e
fc3309d4dbee03f517eeee07c101f9d2
fcd415cdef1205cd12e9ff14f8d701d5
2636f3f904eb1ace1ef9141d0a30040a
f80d0ceef5b80923c712fddf1db4fd18
db1eed3de5cef321b7ff24b807f61916
f4200116f0d5f408050deffff70840fc
0e02c6091e3cd621b11516d9ed0109c1
0804e0122d1112f9f51605e20e160aef
e01ef81ef7f93b04061217ffdadc1d1e
eef7cd26ed1005000e03fae511050cf5
ffcc0e06f204ffaae700f6e402d23cec
cfc4e5e2dad3f9efe3fa08efd91d31d2
16e81718f10f1fc62dfe4409cffa15c8
040c170eac25fdfe0dd4f304d3e3fbe6
d8190af7d7f20b241412f7f90f0bc2e5
171f08fefaf1f318e8520418180be21b
edf5ea00edec140cd802eeeaee1817f4
03dac6c706c42204d7e4ddde051802f4
26dbed1520e5f8f0dff7fc091f2cbc4f
f9f4e4faebe8ec001dd2e300fcc8ec0b
dee80b0bd8ea43df2aeedc17d4ee0ed4
06ed36000719fe042313edfaf7f6db10
fff71df3fdd3dedaf729effbe201022f
1fc6f61206d7c3e0fb1f0809240906da
18efd7f1e9e31905040ab81e13d4340d
132b00f2e8df16ec240ec804170cef11
13140fe4e60715c4fefbe71c22140b02
e91117cf0ae634da01ed10d6e915fe00
0ae8f9f4f0d6e0e61cf2fe0c1a32dcee
0d02fcfbeecdf5e503d4e41f0905f207
0dfe06e90b08fd03c6fd3ad6fee2ddff
0ef8ecf0d2c1fd06e8e2fddee0d0b4eb
d4dfdff1f9c2ef1008e01fd5dd2cc3e3
57f80e0ac53216ff111b0ff2e60ff813
1b260609fb0fe525112ce9f8fffdfde5
f618d8d1f6f3cd2a14e7e9d1effb10be
f012f9edf82e2710fbdce3fafdedb9f0
2b02f3f9fe1a06e4fbf6e3e300e0bd04
0d02feeafafbf409efebee07110be1fd
130de6e927fa02df0ef2031720fd0112
f2feb8e6faf8ed09172ded1d38fa07ff
c902e2fff4e6f9d605e2f21b09c0c5d8
13230df62101e6291915f7ff0103f6e8
fe14f10b0ceffa0bfaffecfff4eb1217
f8cef302e70f28dfe811eaf3b9d1ebe6
1633fcd6fbc20e1303e8130818f4f805
f8e9f9e70a0714fbf40f16e3c8e8fd07
f6cb0610c8040de7fb05fcc4a517df01
f6ff09fdfd1cfac0db120be5f103f02d
d3e5df21000513b7ce0509a804f7010d
14f016ff0a36d2e9e8e02d24e4fcf9f3
efea0a00eaf8e51f0c15d2f6d100e5fb
23d214f4f0ecf8080ae912f9fb1604d8
0432ff500a1d27122b1405ebec020b04
271cc0fe320b0bec1afae6da10fce9f3
042f0708fa23142604e71eccf7e423f9
d0dc170b391ae814e02bf014ffee0ce5
070be5ca241512d4fa011c070ceee80a
ed182cef15fef00b0ffd08e01101b613
02dc14102bf316f0b0ed2a2e0ad6c9fe
e224f0ddeb24da072bfdd71efd1f0bea
0924fceb6303e017d8b71d150c0d22f0
f8ede0ec04f50e05c9d911dbf61aee2d
0621e4040a23d1db08e0e3fa1e1cecbf
02e8d6081af2f329d1f6f6d2fb08f1e5
e90aef181204eef6b4241aa605c7e0b6
fee0db20ef1828fcd51ddbfe120b0600
dfbb0117f0dd25f6d40fba00f2ed23f4
e8de231911da2418e9f5f3f1edc10b16
e5ed16d627daec14ed37ae06cdeb0def
121a31fbefcfdacc2cb7defcdd04de26
d421100214f820db0ef6f8f3e512051c
0f072834f1ffe41a07f3e638cb02001a
d101f816e3e71419360b00edccecfade
eaef06fd19ed1b03181726de0df1de04
e4f10515fc30e415f80d090fd4f81717
0e1edc16e5e917231cc5c2febcfddde1
1de8f7f1edfb25210d0ac9f9d904ec28
151301fffdeaeff2f0e1111f14ffe919
0900fcfee3a1f71cfafdf5f3fce802e7
0b0328fe2ad0e8080ee01aed0feae01b
f60100000dcce5ecd61ae3f41926d80c
e30e21e00be2d6efe0291015dae0f408
170f4016fd0410ee08fefbe5d0dfd6df
d0dc27f6f311dd1d05ff21d6edf5f62e
fecff60eee292d0ff51f14ba1ef6e1e8
e2e1e5191628fcf3ea10eedd14c711d9
f6e1081bfdf2dde8e71deac924e3f8e6
f7e8de11d7f9cb0ce602c9e9cee9f3e9
18f9c0e90dabf6f6fbe7e6ceefeeb910
111befd2fe0900deebf7a0e706f40605
1d04deda1200fceaf2f6df0804f8050a
f4f203ea16e60d0c0d1400e7170408f4
0e0c23e7130de6fbf9151c15e3fb241b
f2ef0defe2d6e0e414002a11ebf9e9e7
c70d3afb06f504130d25f939f1f4b0f0
d8d9fff6fd1f1ce7eb1916d8e7f21f07
f9eb0cfd112609e9d61beb011cf71de9
ccbdb417fbe30e12dd27c5f0fc23f6c6
f8fc130cd5faecd2fbf3f90928f903da
09feeff8c7d9ed072102f70ef0ecdcd7
c5b7ffd213e8d2151a08f626d7d5131d
071bdd0edff5e6ed0dd514f123fbfde6
e6fff0f51ae0eee212d4edfd04eadf1a
dbbb2e9c0316f0d809f41205eafae200
f2fd17ea16f0e4f00bdd0df6f114fdfd
ffe51a1a07e1130bfbf327e5e4cd2acb
f0b9162210f01bfcdbe5f91cfdf3d8ee
f0091227f6feda0104140b0d06f4fffc
052911fdfc13f927ef23fafdf1f9f920
e0aaf9d2ffe302e70710df04fbe21e1f
e9e8f9dded09fbfc111ce8111e00fd06
1cd7e5edebf5e4f9cb08cbeaf1d7e9f9
341dd0dbfef2fbd4a9d2edebdbc6e2e3
ef18dffb16f8fe150c17e7fd0df02ff3
b8e50d031be3140aec22ee08ccd0390a
f0e19024d90529edf40dcf05f5e71ff9
f902f5e9f8f11ff7eb19ece6e1142500
e201e4eef6fe04fd0100eaede116eec6
f3f0d7f7e523f812f6e4e814140de4e3
c7dffd23d2e1e2d7fa1d12e0ff1cf702
e01ef6f71efce8f4cffb02eef107fc0b
1e09cbdaf813e219ffe20a313934ee0c
0fe4fbf4e5f0ff2309f2dae8e30d27e0
2cfafa20e5eaf71cf3dde3e4f1bcfadd
1ffaf506fa01071bfdbae6fcdc0cb510
1e0fc026031310f82300eef6f4053307
ebdaf6fc0adedaebfef1f70dfe0108ce
d2d11de8fe11f1efbde516f62e26e902
f5fc25160608ede10b28f3fe27f4d021
d1d62dfee3dcd9f6b601182e2b0ef006
ff15dbe4dce5c6eec21ead1c3ff116ff
161cdfefe8dafb0d0cd506faeaebeef3
19d90fd922c90211e0eee8030a150e00
10eee8f2150a2a08cdf83224fd11fa06
f8e303f212f4fef825d5f615f0f3fc03
fa09f304ff053000060c0925fc11080f
bfe9fa0b0031fdcde30718cdd70dfc0c
d6eaf9def4d6eb0ff2edf82f11ec0237
c1f22cf31de40226d6151e05fe0df015
c8f008fe03080813def60700fe002107
eb08d8ee24060115c8fbf11617f129f1
0733bce3fef4afc0ece7101454e5f50f
0722fbf8f0edf9f7e1bd24f318050128
e303dc021f04cfdcd115f908f9f7f212
1ffbf9edfdcb060405da1a04fd01e110
1324fc040fcae60217da23e602160a0a
eaf2fcce1ae6dec3d612e314ec10e8e7
e606f4e7f8d6f1fafef4f3dcc9eaaf0d
f1e1f41d0bf71b092afa33fe17e8b902
09e8effcf8f60e0cf8d9f4ee150529ce
d3e5f5ff2bcf120ef8e7dfe91e21fd13
120c05ed0ccb0cfe0d05ff1a0e18ed20
241d16f2d7d9de162312032cdef3df0a
e1ca19fef6e0f1dcfd07f0f8e9df07fe
e8fc01f3ec03120609e7bf11c6f7dce8
050cfceffb1f07f2f900ffbdcb07c1de
27e209edfefb0bd3f5e71aecce0ef316
e4ddfa02e4e403f3ec21dc16c1eee510
2c13e826f41110ef2803ecf2ececf6f9
ff061016cbf613e4d00cd30e1b0213fb
f5c80e03f4fc170fd9d6e11721d61c24
df13fce3fa4eeb1de7110213f7e1e1bd
ec12e9f1f50efce407090214e7ef17d3
efe7e4c4ee020bcfd5fdd013e8f42cf7
2a1cd82203170f26dfe5fa19210512f3
f30ddae3090af0f1d0d70bcbf110eb20
11ece3e0fbf30bd5f207e1e6f0f3d1e7
d1ffe1e1f9fb2de1efe8ff0ed2d6cf06
d4dcf7130ff81bfcc21cdc03f3b3ead8
d0e51afe2210da09e313fb1a0424310f
f0f409f4ee0d08dfe2ea0113b9efeb07
e90c0cdcf809cc1522de0a0e0a0b0401
010c13d90ff8d61314f3120135132905
0d221dfec5ffbf103107100bfc0712e6
0b1dfbef0315c5f127eb09dcf41df4e3
ddf9a1e42007f41605e022ee0905d8fa
073115f02cd7f42f10f30e04f2eebbf9
e1d106ea1bff26f1ce1bf71c0efbdce4
e6d328e5f80809e5e9100414f00ce622
f8d812050504e41a06ec1808d7e3d90f
e4ceffdf0aa0e607f11bd509c2edf6eb
f0eb05f1cb0bf5001af10ad8b81f0901
c83bf204fc23e32003f816ead90a34ee
d80df1f7ee31f12204db0cd3b4fe23e8
0f1af9b8f0edfd371cfefebcd5cf0dbc
cbe0f6eb01e30f13edc20819dbdaea01
00d3dbf2dbdfffd5fcff24181800d112
d4f4d1e2f20b1cb9c4f9fcdf161d19e7
f5fdf6e708b6dc0ce4f13cfcf6f8cd21
f30419f0defe01fd08fb17e7f4e0d1f5
ee07ddf232db12d5d90b111307ef0721
13fedaf2d7e420ff201a21eafc02f008
ecf712f6ebdff0f5e41008fbeff6f7e9
ebdcec0c190dfab5f2e72fe002e0ed11
2bfdfdf70916cd32efece1f436f8e6f9
edf6e203e4bdea05de0fb9f701e0b8ee
f325fe03e2d9dabbff0d01ef10f9d5f0
e2fb07f5e6df06f9e4ddef000feb03d4
ff09f503cbf3e7ddd1f3eeefd6e4cbe0
081ad3eaeef304e9f2d6f0dfe400e8ed
f9f0fde4e60106f5d2e4ffc4dbe9cacd
05ebe9ef0df2031803e342d900e4bedb
2f2be1f90df40eef14a102ea0ef6f2d7
f4f600d8fee40bf3c2ea0cfe20e0fed9
14e000f8dce33a19eef7d2ffdf0bffe1
2dbc002a1312ebe210fc26f923ecfaf2
0effccebf2f2eada1dddfa18f209f016
fec4fbffe9ce17d8f6e3db140712f8f8
1ceb1912f2dce6e3f2e6fc2606fe1f25
05f014f93fd5f501051bea02d3ea02f8
0ed4f508f4eae5e6d1090d031fe8c807
1ddff3e002dceaf1d3fcf20ee702fb04
e21fdcd5ea0ee5f826030311fcf91f12
fe1ce105e3f5f7130010c5ecebfd0be9
e812fa19faeef2e70df5f41215ee380c
28eeec06e0130ceae6efe6fb12fde8fe
18dbfe22d4f8fdd0fde6e203ca1bffe9
02e90c05c5eb03e7cff2e9e7c612dada
0721fdcff8fbd7f9defdfbe7f9fc080f
f410fcd1e905dd15d0def4dbc4f3edf0
07edfddfd9d5cdebeee2d9f8f1c815d2
11f9e203d1f626f8d8dedcd7def7f7d5
1ae8d2fa08de0e39e5e40503fceaf3f1
0ce5c9ecf3f50404dcea18f8322ce90d
ecf9ea38fe0dec20fe07bc09cbe146c3
132ad50ce7f51813eae9ecf9fcfa1002
1cd5e902f8fdf81030f6fb06fdc7def6
e82cedcf9d38fb030fc6e3f99df4f1c9
cdec01c2dce6d5de2ecdfc07db23f6d7
ffdf0ee3c9dbcbf105dd07021d34ce1a
fd13f6f019131e280f040407f817c6f0
2e0cefea04f328f7fd1003121216c11a
e817e8f2f7f73ee5f6f5fc0b0afce6f5
eec22e1c040ff111c3ecd7ebeeceafd7
f1e523dfeaf8032be6efbe10d5ead10f
0002d0f8ced5fdc605231c04dd04d818
def2d202fa17dc13f6f3da0afee3d5de
e525f5010713fa46fc0604e1e5dbfeeb
e62a13efe1f3ba02c644fcfcf2fcbcdd
f711f2d5062be613f6fc0bf716faf811
08fb0af805e006f5fcf908e91718c9e7
ed0332e7fad9d5d1d9e625ff10ddf6f6
2217fc17030bd9cae1db07ebf0d60004
f513fae1ff0cc5f2f5fce8e6f602e405
fd310e0cfad9c226fa22fdca1a00fdce
0effd30ccc0325fb14f3e1d8e8de02c4
faf2c3fbf3f9cc00f8ef07e0082822d5
0c0bffe601d7dff4db03f9f62615fdec
070feafd0fd8f6f1f211eefa22eaf31b
f501fad90ce7dffadf1eeefc15d9f92c
04f8f00621d117d302f3e320df01172e
ebfef9e814de0309f10712eb21fb0f09
eec4160ef037fded192905f1dd21ff21
dee7172fec0c2208ec1c2813db21f0ea
ce0c0df9fd30f820edf6e62100dcff03
ede9ff071af7e60612effe1aec00f007
d9010c18b918051e0606d9e6e722f200
da2e30f708080e0bfd16e8e5181dfcbd
f3f0eafb021be905de1ce10debc5d2d1
0cbacb42bfdbd1decc11fed0e9e9d5c7
0df3fbf6e4ca0af001f602e4163aeeeb
e1fda3f3d5f2ecd1ffdddee51bea06e6
f0ee071c27e9dc15eaf4c413f4de2a19
0edb0304f7c4232efd221512ec0ae519
f9fdfb17dde10502edd5f020d90cd51f
e1011edde5e1f9d6f7061212f4ef1308
fff211f5f7facef7f6ffff180df103f8
f7dd24ec20fe02f70d04f6eecdf1fecc
d6f311f3190cf7310a000aebeb113203
ee110a06e5fddb03faedec191021ffe3
16c3ff0f07e2ebfef915d0fcfd01d8c7
e4bbf202ee0616d3f30f090ae719f4e8
1012eaf3caee0027ee25e31c22f9e0fb
f2e8c7f3f5c5e2dcef03fdea0bde1d16
3a1fd8cff8f0d4d0ec0e03e301f106ec
001304071e1bc8fbfee70ff317f011dc
0ced2a01f3220722e1dbfff3100bff02
1cf1d706fb090fce000313c6d4f1f6fc
f6d40500f80911131113ea2af1140ed3
f4fa0118ffb9ef06fc1ed0fef7ef16f4
ebdf0323021de0d0f60fcdece0ea11e3
0aeddf07e5fd04cd0922d01dfa0beceb
fdd5e1f3f2d2f829fcfbd01a0bd30e06
e4993a011cc92201dff4fd1d23d82815
07130a08fceb0e2715f8b9eef512f306
201aedf009d9f90b18e614f9edec00ed
04ebd90d0b332518050b18e2d51e1216
e11e1805f5ec031c2211ebfc03f61005
e6cafe0ceeecf81cdf02eceee8f2d5cc
01effd0ef521dce1fcfde30b09ebf8fa
ead2061700f911f6de1ce2141b04f8ec
fcbb091906e60adceff6d4e705ffecec
08c6e6eac9faeaf8e5f4e0e92a3011f9
ee05bbfedad0ddee1ec32df1eb12f916
cc03f9ee06b9daf6e4c3d212eaeefa14
c6d2fd01110e09cf090b09ff01f6fbfe
faffd0f301fccb290cf52a101805ed3b
12e0f6dcebe0b5f8e806f50f10edc308
0cedfdcef0f2ead017ddf310140f0d10
1d06f6e0e9e62d0af7080de1dd04ecea
0008dbe50623ede1fdc1e9df0dfbc7c5
e802a3cff5eef7e9080202101ae6060f
f830eaf1f612f206d1f114e102e9f6f5
30e40a13f1e3f2fcdd320c0bfdfaf9f0
fae920e5ff0de1e90f20edf206fe0a15
c302e322f5e4ee3c05ecdfe7eaf40cf1
10ea0d0bbefde801dd15d4130ae21f05
f30906f0e7e5f7e1001b11f4dd070702
012eeaf2fd2c14f6f00f381bc0f316de
00e7c70ffc09f4f3e8e5f238f50e06de
1defdd01dcfe01fb1421f8e5e5ef06d3
11bfcaf7f0cdfdedf7f7df1c33250112
f107dde7ebb5d40ee6f20e0c07fdef10
07fff6cb2cd4f30b080d1e0d0df2ec15
06f3fbfdee02f703c5fa07231f24d325
fa1210fcdbdbf10aedfbe5e7f7eeea22
050a2eef1be7f3050ed307cfe9cbd0c3
f212df2608e90010ff26c8c3fec522ee
0301051a0008fdfc0ff8e9b90ce31fdb
1508ea29e2fb01fe0dfec8c60f1910cf
e82c1fff0908fc10ee37021524e2de09
161effffffe7eadbe4f2e70314f7de00
1504fef6deeefd010cefdaf5fbeed41f
f6030bf008ccedb8ee0ee21e01daf30b
05d9dac81ded1fad04190d29e600f9f2
0be4e2d5f108fbd7f8f3030f0eccf502
04d610fc071e0dd90bf3f81dd0160be9
c8e308411913f9f52f15030ed0300e0a
dd190cfa11fef21e270bf9030f261a22
46f1b70ae2f7f6f5fb02ee132ee3e80d
1ce2db1e2fcc10eb0c0cc80f0eed0923
11fcccb8e8e1f9230b06aa26121314f9
15fb28fcf1f8e9220ef90e1125e9fcfc
e7e6ebf911f20ffd0ef0201cdfed0a14
e1cb00200bf606d5e1060ee2c606d3e9
de120bfafa021014d008ebe9e1e7e4fb
c1f3f3fa050df220cd02fbe5e3e2fe04
ddd9070413ec0815fefc0608eee91407
20ec0806e6db03dd23e9fafeff2e05f5
11fbf8eedf2a21f911d1da33ef08f1f6
da08e901ef24151817bcc1dfdf04efef
27e9eafcffe60a09eed9e7d8e6e9e9fe
3c3fddc8ef090fe10de6dce0ffcfb4e0
f92b07e1f5f70fe41ccebb071de5e800
ee18edf8fef90a2b072208c0fef805d0
0d011c2906d5d8fd0809303510d3f7fa
f5e929f80bd722ebf4fe070800dae1e1
07f8d4d3f0be16dd21b7f10e0e2da5f6
e503f6eaf0c6f2c121d712001211f5ff
f7ef1d04e9d7e605f9fdfdedfe151b0c
f9093512dcfa0a0ae9fcffe10610e9d7
1802e3df00efe3cae1cf04defefe00ed
2807eca309d0da0c10d4fbe12f2226fa
daff21f3f225e70ddeff25ffbef80cee
18201a10e91b060af412f9f3e1001b03
0437e8f7000ef3dffc0204e1ecf1e2f3
263ba3dfd0f8e20e031cf8eac2f604ec
ef260d15cfe6e81bfa4c47c3d1e614d3
eb002735d9e0acf6e72314fa13060ff2
e01ddd061d1e0f0f13fce80022063e22
f813a4d4fb02da200eeb0208fd0427e8
07ef1402e403ab09cbf8eceee71eeed9
eb021efb011ce912131b13092912150d
d20edc1b0a12c61a14e2fe00eee41619
0d070be2fcefcf0529d61c18efc619da
c8e905fef003e7ec1af7f5ede9d6e1e8
def9d8f8f50124cbd1e8c906130100fc
e9fad10d0ef5feeddcf9362f04f40f22
e819eff1ff14edd3f1f8c0d8c9edfbeb
e8fef1d2f8fd01dff8cacb15f1071ff8
ea1902fcee0434edc4f7ed0ff13121f5
06010e10e4e81c17fefcded2e9c4e90f
dafae511f1e1e5f919f6151ffac8f00b
f8f1eb0006d435f9ebf01e182c25fe06
e9a40d1ffbd2eefae4efb62021f403f4
030500e20dfae802120cc50bda18e83c
0211dfeceb2c04bc0be923021434f7fc
e5d1ea031cf3d20ef009e826dbfb19ed
f2d8e0e7d800de1cf2ddf71ff2ee1b00
da0ef5fef63001e60e0617dbeefa1015
f0e2e9f216fbcfedbf04f8000ddd0c0b
15fecbe1f9e4d7ebafdde51106d6d6fd
f62ef8e0daebecf40edff0f2fbfffba8
ee08e0112119dbf7e824d0f9df1af210
e2ed1d162303f100f72312f7d0e8ffeb
e0c813e6fff908e1cbffefe90ce40df0
fffdd2ecfff6d525230110e5eee4f9fc
1f0b20dc1af9d30003d80812f0d6d901
10f41a0fe8f6083224f4f805f91b2b11
e0f8020101e903353611f627fb0ff212
e2ecfcea04f6f1fd210be9f6ea120028
f4dff1f82312fbf70210240000f9f90a
020425a5e3c3f310060df5efdd011ee5
f3d5fcd7f5e2dfc9b9e1010702fb281b
ffeb10f7defe09e0ed1100201840d921
26cddf1adee4210d031fef18e2e4240c
25cfce040c1fdfebef0b022ce302f503
eb14fe0f1cf8d5e7f80f2b04e90a2d28
3ae7c40217451aebf707fee51006441b
0dfb0bf90d140cfac7f40d02e9eaedcf
d2031bbee3f4d308efeb0af6fbd0f8f6
c7ff17f8e5e9cd0b1dfb0711eef6f6ef
f6f50a0f10d203ccf5e71f02010c0906
ecb9e9ef192d411fba0c09dcdd153224
28eb30f2f6d3c0ee1d05ea130ef3dc02
10d6e6f509fafd14e9e0171812170325
e4bde8fe2c04161bc40323e507fa1512
01ee34f5ebdc172019f0de2512dbf0ff
ff02d0d91df231f9d61701ec27e6e728
d9d1ca0907f422e2c8eb13e01709fc01
fef8c61ef0d911eee9f321da1bdd27fa
0903fbd204dff3d6fcf41cefe4f4fde8
16fa04f6e80602f8fde710f4050ab3ef
24e2e5e9f6f1feffe228e6f507060c02
0216f6eff2d109d30a17f4d4daf1bcc4
eb2e1cf5fddbeee7f6da2bfcc215ca25
08df08d80bea20e4f312fc0b09140332
0df0e1d7e3eff5ce18dc08cfc4f6f3c3
151d08f9e4f507fe3ee607f126e3dbe1
010cdf13f11ef414f81ec821f3f70a09
fd19d82ae5f10bec2e0bc0010d03f5ff
ffffc8e9f90013212303dae7f20e1e20
0dcfdde5eac30ef7fbf2db23f621ffe1
e7d321dee9f0e5110ab9f5ec0d03f7ee
f8ddece605fad9e400ede1ee190f0414
1c22241315c9100ee2f42fd2de12e70d
d10d221116dd1c15b82cedd2d9edddf6
010c261218dfeafbe31a01cdd2d0e8fe
ddaa2d00edf2f1ce0f2a0434f91c11fe
00e421eff2d7e420062f1809080f0ee6
f11f2edacbcce609e64633e7fbf439e7
e425fe03f120f6e3ff13d7b5e90df419
100cd2e41d0d0ed6fcf3e1cbe5e6c91b
15fde5c8d32323230dbf00f816f612ec
030702db0906fe2120e423ef07fb0e12
eb27e7c917f11ce5efffd809230fe5fe
1b0706c70721f5c6fb0fdaeb1408cf15
fce7de030ef810f7e01501fbe7f62515
07e6e7ed1911e2efe0f90207d1f61700
161a0aff040cfbfef8e811f0cbdde4f9
06e7b9da13d336f6f1cbfdf41f12fa11
19eae5d9e5d529f6eb35d4f406242af9
19f41922ef31e3e9ef1fc0e2f2c811df
dbeb210b0a03eb000f1417e7f8dbc204
120af1fff6e617eeecd50912161b0a01
0e0e03f602d32902000800fdf12844f5
d7d5e8e1f61cefed0e1a27ebed06d6fc
c6fce302e81109f0ff1dfdf601fd23ef
d7200201e80f18171f0c31f5b9f9e122
f8f50cef0be10ef700ebe808dffbfe11
031f0a0cc808fde026d6d8fcf91000f5
c1310bf7f21c01fef2130de8e5ffeaef
0e06e7cd0b0ce5ccb2ebe80de5fccb27
16ffdcd8cae50af0d7ebe8faa50407ff
1bfcfa0ed3fd0dd33506def3132ff3f2
f717f627f801f01233f9defed00600e3
e6fd07fdeec9d4f821d1d4f6fd25e1cf
d2e8ebedea00ba28fde4efd8db25e30a
03e5e4f5eeed2f130cf0d3e3f201c7e7
20e8dadef2c91925eaf9fff8d7f8f204
30fcd4f3d5e7f3f40dde11f3e11fd8f9
0bd51df01ccc063a011cfc2d1c1b004a
03dfd6e821f4fe1a2a2f0f19effaca16
0b03e0def00bea1cf8e4f9e3f3e0e2e7
01d61c06e60dd4fdef23e6261d3f0107
0c28bf09ec0ce40acdfc36f2f011edf9
001eabe9e6dbd6f9b30c23f4e9cd120c
2ce1e5d2c1eddd1be91bf5f222f10ce4
3123e1dfdeefd912e0ecf1f318e1fbe3
e9f6edc78cc7b7e60a39fcf70ef3d9de
1c07ba18e6f9080b0cf1cdf711fa051f
0fd912f1fbff0beee00ace0cf0070ccb
d3f8f6e8acf8dceb17fafcfee60b0501
2ff8fa1ac40ecbfe00edd6fd25f308e1
f8061d1913def019f0fb101a08f51804
f4fb0cdbff0824f6f00be4f30df8f61b
fd08e1fa15fef8eff1e7c9ebec2cfb04
04cb3ee506e3f815f9e0ffdedd084320
e3f03ed9e51ef218db2bc5d30b26eed9
de0ad5c1ebf03ebf07c304f5efdeeaf5
e8dee1e601c301e7f1b82bd42adf040a
07e8fdf002cfe2e2f0e8eb0b29141711
ebd80f0a1afa0308f639f89af6fa06ff
2cf507ff0bfdfdd4fb0d04dde92ee62f
420af30b1c1d05fb0b12f8cfe113ed0a
081aecf7feebe109e12301e223ce34fd
f1f62be00202e3e8cd25f5cff61ae640
c9122b0dfadbd7e9240214ebf10c0cf1
1403daee0f29d8fc14e4e8fef0d829db
ef130ef5d8dfe1dcfe1428f503d7e6b0
d600080cdae8e0ddfb0dd8fb24f9d61b
e408ac01c425da0efeeddae1ed1a2bf8
ed1111e8dae403dac9bb1201bbfbeaf8
fdee11e0ed01f7f0c4f304ebdff5d100
ef16eeeba013e30ef100f8faf926f40e
e50af0e9ece0edffd2f306e1e9e80a21
0f1afcfb100f10ebe11c24b62613eeea
002403d305f7daf5f5ff05c3e4fa061c
f1181ac814ded2e3fa0c19c2112b100a
04e12c12f8fe39f4eef7049ee402f505
0f0929fbecf8d2f7090eac0225042ee9
fa2acde5241eb4e2e9ef0cd931ead0fb
28f6dde2ffc50309dfc901dee5ffeefc
0000d2e60e08e622220bcfed3cef01fa
0e231ca61b02fceada0711f2a628eef3
08180e1ceae2f8190e0702e7b0fbd3e9
fb0a26f318e9e617e1ebdcce05e2dee5
d90ef4f905d0f1e612e8150dbde7eae2
01eeee12111014070b1520e2d31bf20b
fd03ccfd05e6ece3f2fad716b2e1cee6
f80dc8ec2fedeed20ae5fe2a04e90cfd
faf9f8ecebee17283d0fe83b18023411
ec02f7d428d7e601bc21f5eb1403c6ff
1601fe0bf8f3f1ec1bdc2903f2fce60b
24e6b70c12e910010ae61ed006e8da01
fd2611e815eb01f001e720142018ec0a
eb02f71702c91c08060819ec0509e620
e61419de1ff317e91cf81dddf6f8c603
05e5f40220eedbf903f2fb11e8df082a
f707e8e5fcc4e50af8e10af00fd923f4
f0fd1b27ef1eebd205290a1eb80a0d0d
f5ebeb0dec191dd41fdbe736efecd3ec
0606b9e4f1cbdb1bf6f9ddfde5cfd6f0
d624f70dffedea00effbcedd2af100bc
04f2f1d4f3ef1cd7f8eb0624f12f21fc
0705e8ea1416ee12dcf7f5f901e61508
1b17dbed05e7e1e9e60e26f11ffa08f1
0ef41108f9070af8ddd8e7e01afcf9c4
f208ee1f20dce907f201cbc2d802ffea
b4c00efe07111e07fdefceb8cbccf3f0
23e8ebd4fde1ec000611cc2e20da050b
f7def8e7f2ebfe0d293be60512d7fc0e
efcf0500f90a3c01161de411f5e5130a
27fff001d2d583d520f5c20de2dc0cf5
1cdcf2fe07e1edc81fed070ae8f71d26
f401f2f6f3e51e0f1a09fc120c101221
08f0f1f6d0f5fb1d0afab716fded1418
08d9cdf7d1f00f29071ddf1cea0f031a
19ccf9fb18e514cdeb1519f9eef5af31
0fdcf326ba00230d1df9c6cd0fe0eee7
ebbe11fce11b211ce61bfeccddeff9df
03d6f125d9e2130c1723e801a6f0ece6
281ad31ad121ef08d5dcddebfd08d3ea
f407fcf887edf6f90de42201cd0afbe9
04ea0507cd0a02f105e907f7c8094ae6
182f1edafb19eef6e215191901e61617
d8f2e404132d01f70f1dfbded6f7101b
d3fef123151f51e90401f5d2f4f9f30d
ea0c2eebfcd308f218e802fe04f5f713
bedc0415fa15d4da12f104f60709e30b
0409ff02df3313fe0ff2d603fc0f15d9
0022fbd7ebaadbd3ddc7d5fc2618d7ce
12fadafbc481f2dcdbcd02fe1d06e615
1303ec05fda9f31125e5e3162e01fedc
26f705fe1208e3e502f71deb34fdeed9
fc0f040ef9020b26eaf31dec0206f9ed
e50e0cd5f6e0fc24eb4133031e38bf2c
f8f01b11d2faade6041c050519fbd2d5
e40f34f3bacbe00f06eb1fe81e03e425
fbd3060aece4e714f12919e0f9f6d915
01adee0fd21813d9f214f427fbf6df11
1dfbd904e2f915edffe80411f323f3c8
f1c0db0ad7df09edf207b709cb0b24d3
03f028dcf815201e25d314fde8fd0dfb
e1d823e1e01bebe21410fa03fb050ce4
050902fdfcfe0dfa0cfcecd9dcdd20e0
da0dfe14fceef332f6e50fdcec0ef1e2
d507fbe8010cfe1bbf0a1be2b01317fe
001121f7ddf3d9f803fbfab4e617fefb
f515f80d03b7fde8e0cb23deffda242a
03fc11d91b0bfae4c21222facd11f80f
071710c9f019130a010ef8f1ce06d9f8
a9ceece0043b0e16f91c12c812f20afd
ddf2eec20f26d6d3cedb0dcd23ffd1db
cff1f7f2ebfef026e30de80522db4623
d11ef9f7fe14c201ca3a38ea190bf204
f808f804e5def6f605da1aef1e261422
d8f4df0dfb00f3f91c0c0fee061b11eb
f01ee60de5ebd8e6033505eb0ce2de0f
13032300f9e21dee0beb1f01ebf8b5d3
e7e3fb0910edf62414eef5ea1beff5f5
28f5f4e5f1110105d9e4031707f8e5d4
070815effce9e90bdcf62113140e0aec
15f5f813f317fafbd4f61ffe01ed2913
230d16ecdac1cbfcf4f729e8f8d9c9c8
fbdf04170af2d1e8f2f80df9f2fbf7f8
f0dad410fc0129e5e0f3f21dda031600
08f922f7cbd30503f2e0092606f62013
f0fae9ed1fe2ffe4e525f0eee2ed0dff
c3beb5f90efd250a9c06e1f0eaef201f
14c6dd14c7e1f21e00b3dceb09fdf613
e8f6dc3b03f0f7ece61e09e0f116e908
ebf2fc09f2fb15ebfd0721c0b5f7d1d4
e3f1c5f7e7b5f60bfa14f0fdd8fad70a
ebedffc8f7d10028101c08e401ced8d9
f215fd07fae332181be8f9c1bbf7b4e9
1204bbfe19092800fdfe18f8091618f8
3511d9f100ea2ddf160e2aeff61cefdf
1a110ded0dfe090501270e06ccf8f406
f2f4e6de0be0239409faf2dc19ef120f
35f7fa1d2df71b0bff15f6fee90422a1
f93a070fe011f810d8060d03f3fefade
fb0010dfff06d122f02ad4f1eb19ca05
e9fafaea0620d714240ad8f8e1f2d709
02f2fc10fa140bf920d5d712f30ee7ec
f418060509eae62dfad1a7d9ff1bf9ea
0b080810f515f0f2ecdde6c6f518151f
fc1e1b36feef060d29d1182804f2f216
00f30beac415d51df4eb0dd0f6cae805
110d05eacd17f10bf4d2d91023f3fd0b
ee2adbe122f4ed0a0da1d60323e0edf8
ed111013d1fb001d0016f4fcedb808e0
d4d91ff911f00b1afdf21f0120eef0f5
eece0a1736fc41cbfe31051df61c140d
1408e6fdeacefcf80beaef0ef8351e20
c1d3e4edf6073ed82309e1eb002f13f6
dce721000fe80cfffa2f020afa3f051a
13bbdeda2eabf1050019fe07d702041a
06d834fb0dff0b22df0cf0ebec11fefe
f3ccf4e211020df4f1f521e316fa1aba
1d0cebec1cf8f6fc1bfce0e0e1fed7d1
eaf3f10306fbf4fefae21605dc00f8b8
d7f91cfdf6e60eecce1df611090bdebc
0401291f013bfb181fc8f91401ea9c24
f42a1c0616e8ef2a14eac117ec20db0d
0afbff00e1f4f0fb2e0ff10bdc170dd8
0406fc0dfef8dafae5f4e8cff20ddaf3
113be8def437ee35d105fd1617e5cfda
312af3e3f611d9ffede71aecebadfae4
edf0140d04f5d6ea20cff7c81021a807
e7c10c05f3010c04f1e8faebfb01cd00
e8ee2e12e806deeefddbed2a0a0613eb
c6de201a1af2ef2d15fcf5e6100afa07
efd2ea11fefbdcfd0be4133df6fa0100
1bf6d41ae9d7f1f905e71c17f5d506f8
e3f21ff9edcff3f1f406d50b14fb0dd8
b2051016d0c1e6d3eeff29ffecbd26f0
1ae0051109011108052a0a05f001da2a
2d01f204def0dac0d715f2ddfbf102ef
12000339ff0128d5e91909f4f203ecef
fb0df81cd62d10ede40bb5e21109e0d9
e9f7070fce030ad702f3151413edf7d7
30e6df0a17fd24fe1bfaed18130bc5de
12f9e914feebe8e211f106270ef407e4
fa13f823df0308e6dbf01e130cd4e5ed
0af9efd9f10c0ed2031fe102300708f0
e3fcfe143b270416d2fdfc1814feeff4
260415f6fb0908e4e8de2b0410d814ff
08e91cef26280e18f303eb05e6f00be4
ec22fc1d2107fc21fff306fdc208ea20
00f7d90706f4f918f015e4fefff518f1
fbf30a050131f40cd61cfbfeeef8ec10
ffd5ee05f4d419f3f00b11f621f71906
ef0e16fedc1bf8f70feecb05ed09a720
faef0af3a6fee6dc210fe52e290fc20a
0010f90207e8e1e014e9fcf509fe1b02
19ef040b05e00b1e10dfefee0ceed3dd
e8faf31ad0e1edf2e0dff3f3e519d8fc
ec0c1f03e7e7f10fdae92e0dfffb0e03
0e0efa10eb0be8eaea080ff21126d10f
1102f4f9fc04d8e700da0d071513f5da
f9fa2b141f2001082825f14519dc0a1d
e6cbfff606e3fbe3f0e7f30832010c17
fff9ef0a07fb13b1fee914fe010b000f
f5e5dbf3150301a5fc0d0206e6fa022a
d5e7fff510eee7e203f5e0d0fd2010fc
feecd5fe09e922fc031316c1ec2ac6f5
dcfb23dfd335d2e9e61feef310f90ee5
ee000909eef015be04def5e1e5fdf910
d3fb0d09e50407e1f116e41beef211f7
1200f31aeff1f4f4df23e52cfac50bf5
111e390a0522f1f842f5d1451bf6c22b
08171ff5272bfdfbec20cd27ed13cd11
d7000c04eb0111d30d15172eddf6401a
d6f22605f9d4f7ed13ebe92a01e7e2f9
dc04ffecddecede2fcebebdf0f0d10f7
0306f91049e4f3f31af5e9112521f6fc
0ef9e812f5f70f190dfcd6ea27fefeef
e1dbf3f40deb0b1ee3e9e0f62117fe08
f00dec0e0c00020bd8dd0edf08f9fd24
e6e606f605f00122012ff312e603e323
04d3eb04350f01f0dfff0e021b0a1b19
fcf61f0dfd0d2d0d1911150503ee3c12
e1fa04e904ef14eaf821ecf6d3f6dc37
fad815f4d2fe03d007060beed5031c23
30ec0df4f3eb1be1eb00fa0ee6f6eb1d
c011f9e4f51b01000c01fa0b0f24e301
ff09eef2dae8ec1123eac5f608ee05f0
1314e80c17e5fddc0837ede0f6f0fa30
e10b2df4001905ddd8fe3c13dfbedd04
e4d8fdeacdf7f3f1f0141d1307ed12f9
0af3f2f0dd15f4f0d92001031820180e
dce30f2a12e1fffbfe06e70125f6f6f6
e50915f3feff01db04fcca0423fbfeef
ef022ae5e723fcf3fd05f8fc22150cd9
18e728f8f7fdfaf8200be5fffcdc2203
14f8e11526dafdf22cf91ad308db1ddc
f7e4fcf6f407deff00101ff7e6cce229
1303fe08e8023df0ddf80403160421e3
f9de13ef0d13090de91e08fde6f3ed00
140ffbf1f913fef60a212cf61b030e04
06fef8ef05083a33da04e331fb1af0fb
10eed72bf106f416faf8f2e1cf0ce210
d4e20b1acde8d0ecdbcdde04ebdae4fa
24f90503ec02de271ef40fffed0201be
1042f118f6e200f7f10f18021fe5e7f3
ded4f11b0dd905fc0fed030215f704b9
04fffef5d737f2e9fbe5e90a14080411
0bfbe012e2f90603ec09f3153d1714e3
07e22b160df1070205e8f733f111e6ee
03f7251100f6c60314f3f300f601f111
db011ef5fd0000eeeff70603101607fb
fb303d1518eddbfaf3ddfe07f821d0ec
25f7ce0df6f1fcef210831f0fa052516
01f411fb21edfe0fd2161c0b0ee6defc
06eeee111a2af8f81f23fd1f0503142d
f2feec1304ddeb09ef37fde4ec15190c
02e40d050cf5cefaf60000fbfd062627
02d9f1ef04f0f6e10af70bf1d9090407
e804b22704e5240b010a0f28dbe3230b
dfe907f4e8f3fefd21f0f406f1fb1b04
c5f9f820eff9e9ef02c8dbc5f605ff1f
0516dff4021016d110ed171b051112db
00f303edf7e6dff6f70ce4e618ecf202
1911d62222fb2f13042e2d19fdd4faec
d3f2f90a260ff71b02c2f213d11ed3f1
c7f6dafc0d02cf0d06cfebeff0350c14
ee03ff04f51712c5de2df8f7fb171c06
e617201f0a15fc11f7061a19d50b0bfe
2b1314ff2104001f01ed0e0c0a070eef
01030bd529f0ed2be70b080717de1bec
1afadd17f9f5102a0bf908e1e5010701
1ffa0b0aed061f07fad912e4d5dd08e5
06f6dbf2f0eb15e0d92d170308e6eb1c
d6ff001611d6f0dd0ef9dbf0dfe0e722
0ac4e016efe920ed06f30e04e5e52604
2cea100adb020c2bc0f8180dd5e91c0d
e00af211131bece22316f40d050b1ee1
11e8f50525da25ff0dfbfccedb0bf5e4
04e7fee701df1cecfffc32f71811f801
090befed061e16f4fe091217fa07f4fd
d918f5fcfdcd32d400fcf4db25fce2e9
120115dafb16f4fee2f10eee1608fbf5
f7e9eccb032f0fd9050ffa11f6c1eb18
25d40d0be5f5382fd920f4fcfddbf212
0907051a1b161326eb20f722e218ff0b
edddfefb06d422da0ce5bcee4af704ea
dceefafbeed8e7fce40efbf6f81203ca
d8073ddbfc06f71112e4340dd4f0fbf0
07e0b2150af2f013f313e3e607d9249f
ca0bfc09eaf9cafeccfe04fe0b1bfbee
041029efeee002f9f2a72ccb100b2106
0cf900f42a17e8f1fd0009fe3bf5f5fc
29eb1fd6240c25fd0dda39f31c22f2e4
ef241de525d5d9ebf4fa0a0220cbe8df
eb02d4c5041706e5d82af7eec4da06e8
19e2b9dd1fe9cce8e8dafbf6c5040ffc
09d1e4e63bd5e8c901f5e604f20ff905
fb1fe7f1e21d19ee0bf0f4d404dedc00
f9ef0bfccfececed0f19eceffed70f0c
e9f8ca05f4beec3df33ac2dfd50e051e
f31dfdffdcf0c9edca06041a13ee2c07
ed1205f511f4d8ebfafffe2a3ab40a09
da0ee3edd90907f7091831da14eb211e
35f3e804fee624e9fff9ff051de01ad3
f305b02ddaf74ff403fae8ea06c7e2f3
17f910e2fa092f1505eef217ed05f4f4
f1eff8f214ece8ebfd28f41100d0f4f1
d7f0eb272d131cf0e80adcf410fcdee6
db10f6fbe10405fff404efdb36e901f3
14210b08f2042dfdf21b0804edfa09f7
fe06ee130afd0ab6fae9db2bfed10201
23e50dfcf8e302f127030cf409ef21b7
f62428bbe70ef603f0c8f8fc0c01fef1
f9ef0ee51719082bdcf612fdef120a06
f9ed5c0c030ae736ea14eaf70304ec09
e508fbf2f106e9130fe2e0e318d7d9ec
ef02d010303be21cd21bead8c9f20d0c
efefd3ebf0e3c1ddf0f9f212ea19fa46
f4eb10dd041102ec0909ef12fde2de28
e9f6f1080bfcf9dd04eaf5fe0115e919
0d1244dffd11ecd100f5011a19eee517
fffd062214e321f602f6e4f522fad2f3
1002070606f50405fff9f9f21ef5dde7
e2ece3f308d1f317170c070edee7fa2a
dcf8edf821ef06fe0706dcf414e0d9f9
feee0cccff0cf40dddebea12e7fbd92c
0e0a13f304f3f9ece8ef0de3031b0809
ed1506ec44fee50cc5dddc14ddfae800
fa0617f2201a12e612fae9d02820f416
1bdf1519df10f708e0180c33f0effdde
ef0225daeb0f152915e3ea0803d2f80f
fe161501fde70ffe03ff00cf000fff09
e5fdfbec1fe819dee5fe13eef127e913
f1d21e00f2e61543dd04ed0afbee110c
fc04fbee03dfdef023fffdf7ecec2629
0afce82407d4f7d2561503c8e90bfa15
eed3f0f61decbc113623d3051ed51207
e8cdf6ddf9f305141021fd0f0dcbf3c6
18fdfe07d4eaed00ee15faf9e0a2f9c7
1703e93800020600f6d513060ff30dea
09f410f6f20a23f6fc100722020839fa
fff20ce1f31cff01f518f6f715dcfeec
f626e10bf30223def51e3018d4f5e709
f50b01e8f8f018f8d70c060a03ddd407
11c708e2ec05112913f8d2d2f708deed
e625eabcd93df8babbe0dbf3dbf7a7e8
0e0504b72116eacbceffd9ea38f9b80f
19e702e61ae51427d208013c051cfaff
27e312c710090df1f3dde4f01402bde0
e3e405082fef0f070c2ce7131316f909
dc08df101be1f819c1eaceff1809d5f9
f0f610fa2220f2f7d82ccc17fad9f510
d2e61eea36dce02eb802ed0ef21a1114
dbdacac5f2e8c80aecc9f9281b15e902
1cfee70b0deb0b29e2fb2cfe1fe614fd
19f3ec02efe4ed0dece5ed0bdbec03ef
060513f5e4ebde17e7e1fc06d703fc1b
17c9f52412d01121faf6de373007ff03
fce0f50e210ce605f7011cf42203fc02
ebdb03f3121eeffd06f50ff11095ecfe
170ff7f9ededf0f310e5f511f51525e7
13cdc5ddfdd2f6fdf7c907f5e8a11816
2bc9f0d0fe0bffe8171700e8fadbedfa
151415f2b7320de9e9b406eb05edfbef
f9e520cef3b8e1f909bef514fde9fa01
dce52afefcd5ea1d0003f71a0105f4f9
fa050dbc0d010cdf1f0fecf814fbffe2
f4d6062beee4f7e2e60ce412df361ef6
d400f101fd0fdc03ec08f80916ff13df
180ae0cfd1fc05c81bff11f90deac6e3
ec2dccb8daf016ede0e0c3da0ffef4e2
17f8f1db08132026d4d6bddc0cf6eaf1
061419f0f7bfdd1ee81d1c13fd0501e8
2709180f21eaf4e3fc0f1ef2fb040bec
28242bda3a1adb4923c20307ceebed28
daf20af20a0a1c2eed0adaf0e004b0f2
25f315f9121823fb2d14fe12f918f208
0ddb0ee509f203f21a13b502dadffe0d
c21a0fff07fc04c913c4ecf53b1d06fa
0120f10e04f321d9eb1df01830fb2707
ded6b40ccdc0d5a7de0b15dbe9113dfd
fefc10e9ced820ed05ef1a0d0faf1cfb
ce0a060ccee011210804fb0a21dc0ede
bcdb200ff5a8d51aee1fee3416f920ea
ddf115f336ea22f70d2e080100f9ebcc
fcfa1c111e0de2eaf53d0a00edf71a1a
0024c42a17f5ecf4121cf90ffd2a14fd
f8fafa02f9f9ddfaf5eaff0ba40f0df3
2cf0f7f9f608eb04da0bf519e5080420
1711aec9d3f1ee00eb11020fe71a0502
09e9fdcb01affd31d9f7020d0ee7fcdf
dcf6f0e8e7f7b511e9d0f8f9c800fad5
0812f1edda05181118f5ef14021ef70b
f2f4dc0c3e022a000c0ebdf6a802ef21
ee1000ede11c05fa19bff71cf8440636
1ffaddb7272a09e20a29f209dfeffefd
0017fb13180412ea1cf303d934f2e9fb
e5ec0afed0f3fcb618fff60920041421
1be3d817c6eeef020c1a32f103ec10ff
c814fcfe2e15fdd21fc7f9003712c3f8
e70b1112ccf3ded90ae7d8dbf8c717c7
e701fdf801eb04e2100a19f929e221e2
d9ff12242028dc352406ec00f905e5d7
1fe4101d0c1fcd25fcf0de18defa06e1
f915cff4f20dedf9cef91f04feb80ed7
e0efd8fe1b37e4ffe818f608c510132d
2df5e51c04dd1009d008f312d810142e
fb100520dfec13e2d3e143280717fae2
f1ebfeca03fad9f917f519fd1af41a02
d51c2fd20a0ddbd91a1613dee5eb0c04
1800fcbde000dc14fe0e0af0f9dbfb05
1afdeafcdeee0ff3e1032d12ecf0210d
e3f0e9faf211fff4f7fbe0daf1ee1acf
f3f6180debe80601ee05eddd002103cc
13f8e12f0f10001921fff81be52db7e6
dbf1da0de605e5e9ebcfe3f2ea0ff2f1
d5110805efd2d012d0ee1deaff42f2f8
fc26fffecffd29f6f131fd10de0f0c18
ecfbd30403eecbddd8e1e8f425f809d8
e610dc18ed28e4ecf9ee060213e2f7ff
0ce90affea0e010b03f60e1c0c15f5f6
0a0ad2f0f511f7f4f7f0f3eddf00d2eb
e534f6d2de1c32aeeeee15ee21ece902
14d80f0fe90cfb0615ee0ddc2fdee940
20fd0904be22d70ff7e9f7fe06efeb10
e4f8eadbfa0ae4f9ffdce60ffc0cbf20
d0d2f10b08f701f4fa13fc3f26eaf3f5
f8e0ef0bf916a5d910f4d0fdeabdf007
3cf506c8f414ffe4212ad6f2e6ede429
1cfa1102010607f319f9032ccf122a01
dadbf1d911ee03e50e10ffe6f9adfdf0
fcb9c9ea07fbef15f205f2b516e0f5ed
202127cfd608e2daf80a2c2edeff0cd3
f5fef62e3ee9ea13f5cffb05dfe1deb5
eb0f010b2af200fbea03f21605d607ae
2737f8a51af529f6ed091bfc24f3040e
fcfde4f3f7fa0e22eef8deff2c18dffa
f00cef01e4240804dc0a1eec1a1513db
eaf622dd33f2e1fbfdeb02fae60bcd10
060308d2ddf603dff7f8f7db20000bee
e70bf5cbf900fedc01dcd7eaf934b4de
e20f4df1e1df020e25d4112614e704cb
130d03d3e200ee02dfd3eec5e10ce1e9
090308d4f10b09ebe0e103ecfb19b3df
0eff170b27000924f80d14f9e7e8f71d
ffddd6d800fa230d0e2b05d1e8fcde02
1ee500cbd20e110527e0f60fefe4161c
f7f8e62129f802e411fc060b2cd8fe17
00f304f9eded01fafcdc0ce7f1f60bfc
f3dac3bfe5d7f6fce5f000dd00f80bce
f5f7d8deece7e3d3041f15c905f40121
0af1d3110be2f71bd2f0f8f80d26d310
07f2ddddd2c32adbe22503f3fd082cd9
1831d6e4ff111b1fd410111413d010fe
f7f0f0d22df3eafb00f828072a10f6fd
ed22eef4fbcb00d51206faf602cc06e1
282e10e7ebfae03f1d0d1f0c0acfeaff
0504ffe9e000ee0914f6e112f21defe8
050cf7f4de08c8e0131f100ae0fdfbb8
e106fdfdf6ddfe021706fbfa050b1902
e1fa21c112222f18020501dbe4fbdff7
02fb0be0c527dbf0dd18f2f8aac9f50f
f3ddd7dc24b5f9ff12e5f5efdee5e3de
cbf3edf3e6ebd0c604fff8d6e0edff01
cfcacbcfe5bd31dbeee50acfddc8ead4
f5f102e5f2e2e3e51ed1ed08c3e5e1da
0200111c00f1f8db34081705061ed6e6
f9040dd5e215fb03f7e1150213f7f6fc
0ed8d1d8dcd7d5c5f70c11d4fbdf0c16
21220b04ffe30b08fc17eb1a030df707
ceef010302ecfe12f8d903dd2916151c
07d5e7e9f7d7e5deeae30501e4ebf30d
ecc8e8ecd8f6f8ffe8fdd4dbf4c4dfcd
22e9dce8df09dcdadada06eff7d7e7c4
d9e8dccff0e8d3ece9dee5f3d4f8ecc4
f514e3edf20e19f2ee020308d5f31cff
fcf9e8081125fab9d613e004e12b3212
17dedbe6f502ddfe0f331bee07072bd4
0efb0204f712f6171814120900e8ed20
1916010cbe06ee041bd4f3cfd505fa24
dd09d4ddeeeae50bc225150a070c09fe
b60bf8dd3e05ea11fe090d18fbc9e2e4
f711c0a00637c8e0f618021706c5fb18
17ead7ed042708ffff0b210e13dc01ea
03d5de0cdfca08cef910f7d9f9cf05d6
eaedd20507110806d01805da05d93dcf
06f3efeabee40bc60620e2eb0b0537f6
b8e8cd0b0fe012ddfdf0edfaf5df1fc2
f4e605eff50b0005f600faed140013d1
1831fff2dbfa25081effff200428f3d6
0e1bdbeae4ecfe1722f9191bfc0ee2ea
f7fded04150b16d313fc0d2317150edc
1224f3e10bf331f1ecec25fe2400e2f9
020dfcd7e5f8deebf4e7000a081addc2
0f15fab1031ff7e0e8e31a09ead8ede8
100adcd6f6f90bd40229f5dfedfcd80a
08e9eee9cf1702d500f004e4f8f3e005
f3fdf5e8e223d422eff7f315d8fad11a
030ef31cb9edf704f924fcc91c322829
d1dedbe90b0119dcc92af7f4fce71b0b
31edeeb8cd151f042511e9ee29f64212
eff410eb4ef2141723d9fbfce716e1fc
ecf1eec7fb04d80ce9fbf6fce2ebf914
e2fbefbed32037f3fe53e10cd213f9e7
0aeafa1cfaf412e115f82c173ae71fe1
ffc9fa0a08def5ee15e818f72306f209
02e327000f031307fc0407fe331dedfe
02031f0e08011e2007ff14f3fbe6fefe
13eb18e71edce505e3f4f4ebece51502
051bc7e8eb0b28f6f30d17fe090d2bff
0007f4eff2ca0cdc26eeecc9110bf7db
1ce90a000bf3f9fc0507f22ee4dd05eb
11f00910ea32f8df11ee1ffd3af4e2ef
ee2ccff80f1e0a34d1e20316121df9f0
feeaf0ec0205d72acfedb51001150bf5
e5e900fa0a0ffbd8b7eef1ecedd5061c
32160202f0fdf9fddcc60df0db1dd919
401216f4ef22240a06f0f608e3f4ff09
fffef4e5311c35210ef0d906bfefceed
e7f70611e9070dededf7ec0e041c09e9
fb02db002c120cf21afef2e507d11411
c0f3dfefece107f6f4fafbc8f1112a22
08dbf2f80bf702eef8230fef0fef0124
080d0b1336e4f8030822d2eaff0ef4f4
0709f401d5f4ebfdd4e7fb18ef201de1
e6d835012a00060219fef4e80348e5f6
e20c2c0409c0042319ec15f6220ceaff
d50d09e01ef0ce031bfef805211801e6
0c00eb04f617f600fe18d7f7efe409f4
2df5fb1416cfe0ec150bf0f7080035f6
2de6e3ca1a00e800350b19f1fef31207
1812e1e1e60a13031103040403e70818
ed062821d304010ce2ce14eff8deefef
0c12e20fd907d602e6df091605d708f6
1600c402190928fde2fce9ff12efe2e1
0bf705d5dde7e8edcf15ea18bafd00dd
031df904f1fcea23ced2e5decd15e4e3
0800cffbe7f6f9ffe304f1d1fde1ccfd
f3f0ecd5e005fbfdf1faea1ee1e5cfee
1a0cf6f90b20080222f610f6dde312ff
f709ff20ef2016e1ead8d7f8e40808f1
0406e9e225e7de16cf13d9f2e6f31205
f9f7d1e3041011f8fe1a13d5f109222d
1ce2f9c5f8f11ce1eedd071223e5d3ec
1df916fdebce2a1e20b025fd0dc5b7ee
f705f01e08d4d70410c4f2281706e8e4
0ff1e4c8e203daf1f71a01f71028cc0a
e5eb0adfe7f4de0910f815050100e009
0416f40200ce16d717f53003120110d5
e1d40a08e60e17e6e7ea02f2e6d1fef3
1ef92619ed12d00816010bfd01e92c10
14380701f50721f735ec110f190ee2d4
fde3bafbfbdfea18d700cd00100605d5
02fcf72114e2e4fc10def0f20aff1aed
f02b01f8fe0edaff0701e7df141bf303
dfd1e1fdfad7d3e2fc0bd2eaedfe2907
e706fa0609d3e2ec25f40bf603edfdf2
0c12f00837fce125e6d9f323f419bf05
1e20ecf6e6e205fff30910faf90c3102
ec18030003e0fae4e7f1fff000efdeea
35fefd1213ddd53123bfe50af1f3df10
071eddd7f70524eaeee00dfae60781e2
f416dbebde13050ce2e9e9f9e0f717fa
05cc000118fef8170029ebdfefce1f0d
0c28e7e4e015e7e00b071af504e9ebdd
230ef705d717f2d7f3f5f5e1ffe5f807
04b0231811cff41bf50dc5e3f8f9d20d
fa1aeed0d917e3d6070c13faf8d0fb04
030b030c0ce0e9f618ddf6c518fab9ff
bee81900efe709041118d21fee272421
ead5010304f90a2b122eeeee19eeeed2
02f0b9ee17fd0f2d0e3606d800f80dfc
0b09e7eaebebd9dcfa07f3f8f4dbf711
120df5d5f4d9fee811001404fdf70dfe
f3f6e201fced00fbf4e821fce9ee1121
ebc820ebe8f4fad3c228e5e615e412cd
020bf6e1e6f716f6091b1210fe26e8d7
10dcf820f8fef0ed0cfa1403f5faecb1
09c7db13ed05e4fdc0f0c5c6191a01ca
0cf7c9d616dbded5f7fefb361be42520
0fe3f6e71c0f2ed612041a1f2afdfcfb
0f2414edb60ccfe9eaf20b09eb28e2de
fe22e2da0acdfdff1716f9d6021cffe8
ff1ae1b9fb04dde8ec100bfafa10e3e2
dbf602d81414cee5bbd5ece10d0ad60e
1536132adf030ff904de1c280704ead8
eafcc0f8e028c8e4e4de0301ede9e0f7
290c03d6e82e1bd70ced09e30806db29
d6fcfc19ed3102fa000ce5ec12f40903
0802f8f621e41106c8fef8fbfaeaf8e6
faff1b0ef60819f511051d0f190e0f0b
0ee8f4f0090300e610fafef920c10326
0bd6d7191b1400e0041f35fde20205f4
09ebecee2f0f160b19f8fa3d22d6f5fd
1bd402f5f0e0170ee2211514e8cd10e9
fedcf0d703fadffe070ddaf8ecc6fbe5
e6aafbf709e7d1fd2cfee0fde0d5e9d9
24fada0bc01308f604ed0b10d5f40ede
0afcdbfef2eedf05fadeedddfcfcfbd5
12ee1a29f4141357f8071c16fabe12e6
0414f8fe10233619de0924fdee3821f4
05110ef0f900eb0110e9f4fc13fefc02
1cf2f606f90604eafaede7fc0ac61fce
0c1e21dd162608bbf5f918f90e27f6b7
cdf51ade0206ebe7faedfd0e0804bdce
07f1fff7e3310625d306d9d2eaef09e1
f4db06ff02f0e1c01a10f3f018be10fb
e602e7fcedbdfa0f0be0f9c2f6e7edea
ead7e41deedc22e32020d3d30917fec6
17e408ddec0106f70df4130afde219e8
fd0bed09130cf4191b0bcee90922f4e3
e2fef311d9180c05e7f213ed09271100
07ec30f91e090d0bef010705f2ece820
f31108fdfd1d2c1be11c0ceeec242124
ea09e51900e9fed3d1fc24db05fd1d0e
0d11e8cc220ae9fef5e90817e3dfdf22
f6f6cae0d406f43deb18e7150ee5e3ec
e218e4f4c414e30aeaf4e6f8f3cbbf06
10e62408052c18fdf9b805fcffe3ace2
e90f0b221a06eef503d703fb04e2e0fc
0c11d0e8f80beee9f8e010fde9d4e21f
edde37160500020508ffe2fdfb0017ee
250b072af40cfd2e09ed3b0325ed1cf9
0cf7e6ebf3e5fccbf0ccf7d7debd1ce0
f411133304fc0024f304d50d1f1717ff
d71e17f9f708f314dcf5effd1e4efbc5
cb05f6f720e5c817edebf2fbc60101e6
01ddcce5fa06e617da01fbeb1edd11e9
ebf0b8eeeeeafffd1f14dced040205df
08f5f2cb02f215ea0e2000fcf0df1702
e830f50e13faef14cffddef8da07d501
d70a1f06eedc16f819e72806091bf936
2a1c01e1e00a06bc0b041709c7cedc32
000ac604f2fc14e7f3eae7ebdbdfe4df
ebd6defae6e1fc01060bd4e71beb0f0f
15cbbff51cf7eccb192af722d4200cfd
fc0be5ea2f10fee51706e708fee412e1
e110dee418e701eb01fb0c0a04f5e4d4
e0f7fbeaebd4d5e6f5fc0ae0e30114ff
f7091c0cf13616122ad52417d4e1c3bc
ec272de70200dd14eaedf724f0c3e0e4
fd070a00f4eae1e916221503fceffeeb
0bc9f5d9d7ea2b001e1cfde5ee07cbf7
fdea020fdeefddf9f2e5dfc5ea07d826
fa14101af905f2e6dcf9e508f218ed07
fa09c614f4191b0aedd1ddc3f0e61bec
f2dd001907e6f2ecfdee0f0ee728effb
e20cf7153f08e81d12f0240afff50c1c
0403e00bf1f31b04084202fdd2ff01f0
0a0fe1e0eaecf6c4010d1ee507e1fbf9
d8d2dff2d5e1f9c9fff515e4e0edf907
19f90bf6f8f71aff130d3711efdd07f5
f410dde3f0e61206f52ff4def3f22027
e2f8de16e1f3fe0c1707fed0f4f2f92a
07fcccf9f01106dbfe06fbeaf119f102
ee11e30bfcdd05fffee8f0f5dc05eaef
1dcff81adeef050e08fadb0212ceecb3
e21815daf6e90809edc9f2cf18f2c827
000f07bbfa060b17f2ec10e222e9e600
0d05f9cbf9f7fa39ece618f804db17f5
dee0fe05efd8e5fbf1e7d2d0f3f906cf
e0f60ff326eae5e7d3fbfee2f80309c6
e00410f80ad0d9230fce05161af60ad1
1ce6fa0a02c8f234f2f911eed9eff4c9
fcd2ccfd04ef0c02f201e2031ad00eb3
07e7ed1800e9c7f3f918090f05f1f8f5
270ffe0a13030d161608ffcbe039ddfd
de2de2e7f9feeec8f1e712e5d02617f7
adf71621fa09dde3fcb7eb00031efbf2
1500e5a6e62016def311f3f4e724d5e7
fc12da130bfb02dbdeefec11ed07c6f4
f6f2d9d32df0f3f2dfdab31c2fe4b00a
0527f6dae61e30e601f416190d07f1ef
e11b11e5ed1822fe16ea0adce319d509
c12f0022272f1be8edf9ed091304f317
e8050e0409f7fe3b1e1b18140b17de12
1005f904d1e5da1315e5f6f31a03f4fb
16f8ff13fbe9edcbdec0efd5eef9dafc
fafbf6e53902fd0e092601080dc3e812
03d6e7eedb160ce8d412cbfad614fbef
15daf81c04e0f900feec0710f1dbe8d2
ddeffde11401f40e24ede413e8081925
e4e108ece4fbece3e3eebcf8d8e514df
febee6b5ede703dffa0118fbdadcdbfa
0ff6bff7f4f2fbbae903efe3d912e81d
fae9b1e3e60c09f1e9f9fa04df24dfd3
f026f1110c07f6e70afae515101f0510
0c0be80aeaeafa02f01423271ae53012
e90c1adfefecef0302f0edd4e9f6e627
dfea0bfeda07f8dff2dbf9d4d4fae3e4
eff513200603f907e4f3f432f9000508
f401cadd0011d712e1e7f3fced1be40d
eaf5e1d6bef1f10bd4d80ce709e5eadf
17e90cc0c5eff10f0209dece14d3f22a
efeddff52107d9f4efdfec06e9d9f516
cddcdf0633130c03fb28eb09f4e6fa13
ee041c11d0fbfdd004190f24f8ff0bff
28fdf114e2ff1904111f0ec6d7f9051e
f8cb030802df14f602f3e5db11110adf
0ff10dd70af6fcf20a1121ffe0e4eaf2
e9f4e0e9d20b05f7d631c1f2dadff3d9
f0ccebd1d9e9ddcad4f2fcd7fecd09f9
01f7140c482fe91afde5f4273ee9c9ce
0edae013f5ec0d2bf2f3d3dcfd06fff8
ddf2f1fc0ec796d1bbf21aeb00dd0c04
fb15ee1715fe33310e0b01ec1d0421ed
eb1cf70714f1f42200e6fa071927f0ed
260ecaf1c7f2f6e8ffd20bd7dc0abefb
f3fb0ce9e8def10ef0f3060108ce2af3
08230edbf52102f40d09182818cf03fa
0820ccc7ee1ff3e8f30ce7f1ed1efbea
d5e6dd0ff6f1f60bda1aea23caf0ee59
2ae3ecd3ff0cceefe4001ef9e5eeff1c
00e8e7cff300f10fe1eefae6e806ece2
0607302b0c00dac900def113eb19e5ec
00d41df3b30509cdfd08d3c5f9f2e7ea
0df4103af2e6fe0f06e10028f60ff606
2b01e91f15d826e7011108171cd82b14
170e28ebe5f517fe200bca1616220c08
eaf3fa04fc0fe000f9f7ddec0107f905
1d01f921fed3322515f2e835dd150dc0
ec11efe01609f50c0cf3f7f417ebf310
073b03e4f901d1eeff0b1cf9f3000904
d9f8e616f2e0ef05dbfccae5060cf5eb
ecfa13daeee2ca1dfbf0ecf50300d61d
fcda2bee1a0409e808cb26f70e30c114
f112fc0ff7260cc9df32f004e5dc1616
0ae21326ebe4e41af417cb1713fdf815
ebf4ee01f7b6ec1ffd1af4f80126f209
e11302e6fe1a0e26ecbfdccce5e9e2ef
f9f406f4f3fc0218faf7f915ebf1fd9e
f40fe10bcedf41094800f30d14fd22e2
05f4e5db0f08f515e6e1ff0fe6080423
ec193ae61d11f80b020c0a13dbe9df0d
0421050ae9270b3206c2f70ece120009
c61418fcf8d8f709f1db050a032f0fcf
f7dbe4e505eac515ebee0be70bc904e4
e3e2c108f5f8eff1f82822f6f6ee1205
f9f0fa0104e7ef001d0319fc30f8041a
26d5f4ea24df1e21f81bf9e5edcc1d0e
02ccfdf2f7d22c0ad80afe07e4ed090a
040424f3fcf5f20d05f01d0ccddd011d
f9f205f21be0d0d606f2e6fe24f2ed14
00f30e321ccac7e63017140127e706b3
e4eb16dd0be51c0d05f303190e171d06
fd00d8c1190d0905f6030308300ff71d
f105dbf6fa003ffef1fd221de2f50a18
0cf3c7c0fafeea25f12208fc071525fc
0635cac6f9380bff1622fb0b1309f2f6
fa2b0abff9210a141311f800f033e1ee
c902a92c2bb2f1f2d5180705180322dd
cfe5e70a1ba91beffbec0fe11f1edcab
ecf7141ad4e2cae3dedcfdf6091cfcc6
fd09db0af50ffb08f8f101160520e5ff
fdecf709020f01ec20dcc0070b1fd4cf
ec14fbe9d92804f301fd18eb06e9dbf3
160d0c1f1ee7f5ea0bd508f7bf2606fb
080923f2e40ae30229e7c016cdfbcc02
071afff32219c82426dedc0f19cfbe22
dcfde7d804f816e2bef3b9faee130c12
e9e8c8fdfc17ed00cd0ba7f802f4df38
f9dde503ffead124e006adfeb606d008
184b0127ebd0070c020d011c0ad2fdeb
efd31623eb23f92ad30ee807e0e6db13
ddfe11f4fa0bf22b09eef101fdee18fc
de111a11f900c703132e18fc2017ee0d
b9fb101ef613dc060908cb03e913e002
c7e1f114050ef610f3fbb9210e101b1e
0af0240fee17f9e8f3f10feaea30c425
1d21fcffe8260af2f1e3f711d631f00c
231aeafc26e81329ccec1f1d1df119f5
ebf0f80d0b1813e9f0ecf9dacff4d215
ea0ce4fe0010f7efe7f525f5dffbe412
f3fe030be329332a0c0ed9172319e4da
ff07fbf5ee0e08ef01ee14ddd6ec01e8
08c6fbedeae90dfe09f9fd0714d2fc00
08e427e906e0f9fbf0031308290dfe12
cab4f90328c9eae1fb02f6f40024fced
19d3f10a24dff100120508ed0cfe19f9
26f80d05f400f6da19f92ff729ecfedc
e2c6e0eef4d9dfccdff2d8c018e9defd
fcbf0719e12f0de0e6d51bf625e50507
f4071ff4071024e31ef3f50df707e5ce
0dedd910f00bf417fe0001f809e91f08
14fc0bdb46f913f2cf6308e6fd1b141d
08faf2d83d20fa00022b0517f51402fd
e70201e60f0a04091bedf41efbcf05f9
eddaf9df3f07040518e52cd819d5091f
faf9ddcefff9eb082014fbd6f4b10313
e70916dc1e190405e80f0eff13f513e5
0ecfc80937ed072217ef170606d6fdf6
eacdd0e13ad0ffeedbf1f0e116c4cfe8
0af8f7f6ecfe09f9f41e1a0d0608f015
ddf1d1fcf20101eafe15f817e6bd12f3
dfdcffddedf701f3e0d9e6f8fce2eee3
e40bfdef08e50d16081809e817ba16ed
02f3ffeafcd7d9021306f4d2100817ef
f50203d3f919edf7e312dfd11e120f0a
f4111613e3eeeb11e202081be5d8fedd
0514f0dfbce2f5fff7eae5fd0ee8ddd5
f5d5cce21f30ebeeecc7f0e7d6e8b0e5
040c1921fdeed5fd0c2b222f0139f8f6
fb08f5df0114f5f133f7f8e01e1df2cf
e8e1ebd71c0c09fa0afce0f10729fde8
23efff1835ef3318d7ebfce9d12cebe6
1422f00434141cf5d70228fbe31a0d0e
ea0910ef3611cfefef0f33e00dd4fd1f
00ffcdec1e00030116fc3006f92621f6
0bf4eb0e43eff81605d2f6fedb0600fe
13dce41639ffdd2e0616d01902e8a8ed
f021f3e9f2c9f706d9c914191308dec6
03f5de18ee0bf0efe005fcfffe09ea01
10f70bf4ea0505eff8f6080513fb0129
0d0ce104ef13d4e9101c1ed30c030bf0
fc0514e1f90ffbcf051b0ff2e5f60507
0b070cdd1907ef0cf3f7d2eec7f50319
2acdcce8e8e8d3f71609e8e00feb390e
2aeaf7130618f4f317ededec140e07fc
e8f408ff320cfe0addf5f90ad4fdfb12
09fc020bebebba1c03eebafbd6e8dc02
1d0cee05f009d002f2f2f7141017f90c
1305fbedf108d52cd30216131a3113dd
fa1f2fdaeb01d608ef270bfb180f0c0f
1eff16ef15f9f2f7dfe90708181805df
f22f2dee4d08e33819ce1316eb131001
ef0800f6e70f153bed03e80705efd40e
dd1ee8da0cf7e4d402012407eeeff303
ef0015b04b050128032c04e701c607fd
16d30d0022f4f81118e4f01c0910f129
10b50b0df10e11e900f0e52101e90610
bcd7e2e1d0d41cd8fb16fbe90eda0cf4
ffdcef0403e2f43a17efe325f1f62bdf
fd2ae3f8e503e7180c05d11f1ff5eaf3
e1e9cff6ebccc6df18ebf3e9130d0efd
141c0002e8fe1411fdfb022e18f6d8ca
f224f6f6dff3f2def223eeebe5eef4f0
0913e30ae904f4f5081315ea211318b3
0105040ff4f6f302ddf3e5e6fb2a0d13
0f2fd7fb0c16f9cee7261222f207e90e
0d14bfd21f1cddf8e302fd16f3fbecf0
1ffe212610f902fb29dadcf70b1101f4
f7040e020900d6e91edbebdbc304fb0d
f118e8fa1025f7f5fe110bf5ebf9f0ea
da11f9d70ff1fef809d1df0be70cbeee
ebd8cbdbe3e0e7e403f5f70cd8cdfa11
f2e9ed06042c30f70cf5f8eae708ee15
e60cde08d616f2f314cc09fef617c313
15ef07f0d7f9d90bfaf416dee23bfc0e
ed12eaffdddbd002dbf8e0e5460c32e4
0cebfd18ffbaf826f0f4e10304d2da16
17f00f1cf9f3eee0efd4e409c5d20cf9
01f1f034d6f6160f07f40634fcd8f6f3
f6d8d72ce2ad1ef0db1fe92b0ff0e2fd
d5f1d8f4c113ffede2ed1315ecfb10d8
0e1de602161bf60f010305e905e21e04
ced6e9faecd3f2cff6e4f9ffea041c19
01f4fb002011ddb1d8e3f0fee111f22f
0805f7cf1a1eebe7f7f1e118d7f3ee12
e5fb2be5e91212f1e502ed12eae111ef
f8eb17cfbfed0bf6f10407e4d7fdfecd
29f0f5daf8ea210be11b28cef9170c0a
f9073bf9e81902f621efebfb13f1c5da
eefbfcd6ed03e4f7051a0f10ec0bf410
0312ece0cdfc06eaf3edeffccc18eff4
db09462df7f4ede90220e03f40f11eef
e9ffe7f3c6ddeb04e00224e61cfdf714
fafded0a10e90110e3e023f8d6f50c09
01f123dff2dbeecfefe82df234eae1db
e9fe0bf307ea0505130110f011ec1be1
022109f2f321f80b0cde2af7103e180c
f1fe1bec1b0d1d15f621fbfcfb17e209
22f1f110ef09e007f00f17ef180ef31c
19ee09fa0313d4e30a080b0d1518dd09
060df00ef9153dd8ecfdf8e2c301e32a
fae90bebffb5f7dd15fbe2d7ecff2426
f7d2e3ea17e5ddc4f6fdeadcc505230b
34f32509e6ed070af42306f5d8ccff13
2fe7dcf5d1e0f70704e0c6e4b6decc0a
f2b40dd104cad3e3def00207f1d40e0b
1ddc09e6e107e4f0eef41818f0e907f6
07dbedcbe603fc1210de08db0321ddfb
08ee06fa08eeea08f9f818dc04e7ebed
fafb3823ec0ff805d0f92505eb0abbd6
fefa23180a2eea0cddd330d3ed12ebe9
f5381a31c0fce80f19f2001e1026f304
fb1413ea37eff235e7dae9fb081adfc6
e700fcc8ffbb12f5e9e7e8dcf0e5e0c1
04f3c7f9def019fce4dc20fb0bc90bd1
20fee01101e6edddef15ec07e4211300
ddc7d1d2fed6eeddf5f9f7e6e60ffbfe
2edff0ea1007fee004fdf0e2f000d9fb
dce0fb0501e6f60c12f6f324e40ccc13
d9d0032a14f507d10fcef0e6ee20f715
fcf103443d22ffeedef5f51031fbd4fb
e0f8d004f01dff04f409eae502e3f8d5
c9f9f203fbfdea0adf250ecaf1fd0cdb
0ce7e82bdd001ee8e30e11e9d9ee15f6
f7df2f1216f2f20cdbf9dbe0ea0429e5
09e6011337f50f3ce3eb381501dced04
21f6e7e80dfc1902f318e5e219eef5f2
f80bed0209fa0012ded0040fe316fbe1
f30ee6f548e91418e5c0e10f0601d4e9
ee25ec08cbe807e9d5f1ff0606faf1f8
1d1f07e50e04eef1f1d309fa0cd5d8f5
f51900d4ebfc121c01fee6db01daef07
180526f4ce29090df704ed9904ef07ed
0cdad6f51d05e328f804081bdc101516
faf3dfbfffe8e8e425e6e20f17e918fc
1ce6efc6410de9dd13e9cdf5f907fcfc
01e3f511dbf0dcd6fadbcfdc0a04dae9
de0f291ae8f60f00fbe6eff9fffcc82b
1cf50e09d9e5f0d903f717ffdce8eafb
f2e9f9f228d813cd1508f4070bfcfae9
da15f6f424fd07ae4d0ef41b28e91b16
b912fad82af400f5060a2a3c0efefe0a
1238d90024e8f200e006ff051c042d02
aafde90f1bf4d915100d032129d500d8
2107220cfe0be3171d13f708f5f3f0db
064be4081121f31df2faeffaf91d03e5
c100e802ec08f313ee0df1b6ee1a23eb
fce6d9fddbd00cebd5bde2e909482248
211fd900f72ac6d7d1e1deebe2dffe00
2502ce04cc0bc7f8d2f5d8dcde9e19ff
07091913fc15e50cda06edebecdb0211
ebf3fb1ce73bec02eef2061adeed2f08
fef4e9fa0b10e00fe0d7dc00feafdc2a
e5f5f1ef0cdd21b7fe14021836f700fa
0a07ef10f104e42b10bee90a18ec2407
020804f3fbf6063e0314fce21bd220eb
e5ebe0ccf7f60c1dde3001e6eb10ef13
ddeb1ce413fbf4e9171f011844d512f6
16d3e60300061104f1f3ece9ffc20b08
11e2f8340c11fffbb8daeefee8ec10f6
c41de00741fe21120101f0e8200cfdce
ed0ef2f713f3ec05f5f6f10fd3d9eeb9
d8fe05e8060bd7e5f2e8fae607d5fb17
27fc1ded1ceaf4f8e605271af4f512fc
0000d0f0f1eec1ea1c112d06080309ff
e801f90511f5eebd1defff05e48dd0e2
2002e2d705ffcddc22320b4e0de32cd8
0c16e3c805000a0717fcf0f0f420eff9
e1f106e4090fecfcf0f3ca0ddc38f804
f5fee7f4ddffec29e6d906e9e6ca13fa
c90aeffcedd8ef130efc03fed5f8f21a
ff0bdcf7dbf8f429f60710fff40ce0db
10f70e16fed7eef3f723fefafffe07ff
141de90118fcf203090814b3fa04ea23
cb3a00ec2102d0fcf5e0ea11f60fbbec
fefd140d09fbe5d4cd1af3ed270f26fe
f61515080de6fa13b8fe0ae7150200fd
2c1a27fc120bfb1ed3d4e333e6d3f3fe
eb0604fcef07e107fff0f0ffee03f7ee
df04e809ff16e220fd0d1bdbfdcc0e0b
01e9dfda011de0e502eef90dd5fbc60c
e001f8f2faffe7e708150608e6dc16f9
e5ede1d926f20c0deaedf30bdadf18ed
ceee01e028020a0a0c0cdcecff13fa1c
2e1604fdf5fed2dddbf20ff9c5fa0e27
3503f0d2fc2f0cf503fcfff30801d31a
ee142802deef04fd20cce7013cffc2f7
fe0809e8d7efe9ded6ee051800c3f2e3
eee3fae111cd040deee4fef121e81000
ecde11ff340df2091208fcde1005e81a
061bfbcfe2df2404f90f27edf2dfeae9
eaf601c80ed8efe6f3fccddde6ed0cec
ee10c9eb0b190419f63330ef070c32fc
f601cd0edcfb031df5fa18d0172f01ee
00fa1629dbe502f3f6e3dc06e41ad5cf
07fa06d90a0f2a071b05e52cebffd722
0d1d18e9030bec1def02de1006e91b11
ee060a1412050afcf2002df0ff170b03
e420f705020607e0fdf329f006040711
efb2eaef3fe42816c605eaf6dde8fe02
fdfd0b07ea04f40003fef9e70910181a
37fd0b06e70e1018ec100bffdad4c412
fdecebe0d9d105ea2bf8eddf12fb18dd
cf00fbc0f4011ae322ff00090807d007
ea09190ae1d8e1bf2c372a091730edf9
b9d2fefce9efd8e3ffff1de32d03fcd5
f4fefaf6fbd5fede0f011de5f70cffea
08ea1bf1b9e0080ce62102e3e5fa3203
e4ed93c42b17e1dfd8070eedd7240419
d7031bf11c1207e3091e0ae5041efe12
010c22290ee70700ea111dfe21f41a08
fe1c02e7fb0b0ce8efea333c0a03e9f5
d1e1e3de0b1f17f616fcebdb17e5f401
ff151bfd121a1ed3f0c71bf9dafdf9fb
f4edf424f6170ef00136fef919efd6fa
0f00000b041504efe41205f22707f5e9
17ebf0170514fe070414d2f8100e00fe
03c2ef0511ef13fde9fefbf1e9e8d8fd
0c0704f50deff71b07fd0cf8dde817fb
0bfd1f0c33ebe42403f00ff4d003100c
ebcd05ca1af416c0dc1cec191a12f9ee
12eef10b1a00f2fdfdf4010124050ee6
11f40f0df7b5d5192436edd816f50d05
dae4ec023ef23bede4d2071a0fc9e82d
e50412effcfd0fe302d909e2fbfbfd22
d4f0fa0dfcf0e9e1e5cefaf807d21aee
ebd7c3ec12e0d12fdbf4fa12f517fef4
3003fb0221100efe202b01f4ec1c1de7
f1060b2cf6fae5e2fd05c6e9f0dce1d2
d5fc070014de0bf71210073aed09fb1e
eee50d0b2811f6fa09f1db29eefaccfc
0312efecca1a2d1df123dc0ff619e8fe
e2fe26b2031dce18f4fd090f13e31632
faf215fbf1e8e6fceddad708ffe1eaf0
eff5dccdf0fb2816e714ef0200eaed03
03040c0b21c317e309090a0412100cfa
f407fe2cfde2270bead5c7f81f02e6d5
f2f8d01226fa1b04d510f6e91e062f1d
f5001722ec0c0b1203dcef00f803ebf2
e4ce29fdf4f0f7d3def5e5221ae80501
11e8fa0416ec06e71ce9411335f6eb08
c80412f014d2190b174ed20b161e0ffd
edfefafdfbff18c6e1101701fbf10c0d
1713efd425f5c2cb1c2c3af3f626fbf6
0e0f08d5fb061d0adcdee0f9f129f228
f423ffdd023718282cdfe6fe12080209
12f7dfeed210efdbe8d3f7f8d4f7ff0d
1ec8110ff10b16ee2c15f106f10614c3
eb1201190ff0e402f5e9dd1b2afd07ed
10140943fb03dbfb0e12e0131723b20f
0bfcc7efefe110d9ce23f4e1ffe3ffe4
f1f7f50af0ffeffbdade1afdf0e1fcec
08102b18c3070722e7fbeafc0f06e2f0
d4efdaf310d01008d9eb0402e4fb10b8
d7dedee70ef5e5fde5cff111d4e3ddf4
10d8f9d9f5eb2b12e41804deef1a0bff
270e15e10b19df03f2f8e60a091104e1
dbe9d8e9fc010feaf917ecf2e20218f4
ecc7d4f20df420d9f72a02f7c1f3082d
1ec9eae1d5dfbaf1daf0d8ea11e6f718
c3d7f6f0ebd20d09faedd008d6f2cbee
f4cae91bf3d5022816daff00ed0ef51b
dbf3ccf10118fddbdce4bddcddd2d1f5
1501e2dd08e1e0fe100bf1d6091ae6fe
1cfad2eb0905e1edd2fe261df0fd0604
050f14f5e2fe18fbe70cf4f210f7e6f3
181a273100eef6f7210df1fd0612d8fb
f4022ad20e111f0422ec1a30f222e81e
080f0c0016eb160503ebf00beeeae703
f1d8efdffbe3fccb13e8ecf2d71be9e2
fdf3c9c4edf82701fefe0e0ad5f50039
f60af7ea1f0224171501e9d2fef20500
15e70ae5edec09e003dbfcca07ecd2e6
f30b0428edf8fa04f616df1b1bc1acfc
0106051dfdd716e0e4e7e021eadc0516
dce707141ab7e6f0e41aeefbf406fdf1
15eaec2df5fbe3d3030626f3f90afde5
ed1b001609eaf90bfd0fcb09220ff5f3
e514c3fadee2ef210904d20bebe0fc05
f30ee9e90211eed8f6f219ee1112f7ec
eed6d016f905094be1fcda15d9ffeef0
da03f2d3d8f4fc160506fd20cadde4f3
e5f503f2eaff31d81ae6010fef17de07
e8e611e4e821e617e10104250ff0dc13
32d4cd0cc1f4fb17ebdcd2e0341cfce8
dcf508f2f6cfd9ea10dffc0701f7ecf7
f513da1820f0170eecfcea08270328d6
02fb2614f9f0d10722e42b01f61518e1
0000270de4f813ecf21003eb1c2202db
ff0ffa02fde5ddf51cd8000ef6e80616
e400fefc040b00020b04dffcd6f8b5f2
0af8fdf1f31210e80a12f212e311e0ca
e821e5d125ffe4ffe80bc8f02e28d4f0
0bd4d3f00611f016c30be80bf40118fe
f6efe6b7e9d7ddf0a2fcfffbf9efe1eb
eb2fe9daf81106f8e2c30dddf723c614
04ce102017c8141ddfdfea0b0724f12e
1214e9dfdfe6eeeac30ab9e6d8eae2fd
12141a1b0f1dd900d4f806e813ece202
dfd7e736eacb07fffe12f617f413edf7
09cae226f1f01706d7eb0a0ddff5fae5
c1fd1f06141423daf8f1ef0a0df3f3fc
e003fe130e12240310eed1fa09f5f1e2
ccf224e012f228f1edf920de05f529e2
1f00e5f2020f100a0f10f21101dcacde
061f1ed8d212ecde0e011a1f05c8eedf
df0ef01005f7fd1be5f1fcef24e327e2
0f0f091f03dedbf4d5dbfa1b050ab104
1305191de5f21d24ec1eebfefce2c6f9
1bfcd219e22bf2ede6fafaf0fc050bff
de16def814e7e9f41317db05f421f029
070ad8073e11c0f1bcfee2ea0824ef08
1200ea13deebdb1b0ef3fb0ee0f93001
f2defd09e2ef0df5faff0d2415deda06
ebf0190bdc0f0c1b17f211f9f8bbfdd1
e8091c1af4111bfb0cfef1dd14edf705
eb2a03ef12f1ffc5d001dff300460022
e2dc03c02a0bf8efef0d1bfa1633f5fc
2c0506e727f41ca9f01d00ea26081715
dd0911f820fb00fade3aedf72403f403
18f009d40afc36c522061c0b07f41d14
e30afb0ddd0f270bf907132ddcddf31d
cd0330dbf90213e0f420fd0a04060409
e31dedfc0e0bd2d3e5f5f9ec08b41aed
06dcc10d230ff1ededf422fde8eaeff2
18dabceb11fbf2fc1018260d0ddb0b12
04d9040ffdf314e9070d0e01dfe8fbe4
e4dcf61320db0a21fff7dfeaea0d9dce
29d0c20c0b070810ed37130cdf2416fe
2f04fde8fa19161cfbf81417fa012b12
1ae9171402b41be6d41432f30c290106
0403fe0dd7060314f5e30c0debe9012b
2cf1fa030cf80df3ece9e4f10bf102e9
c6b2dfe429defc03eae9e0e819efece3
0f1111d60be10eeff6f600d12b2301fd
ffe701ca0d0c0efbd9eff2cf17d2e3fd
f9def70bf5f7cf04ead4bd01eacfc734
d8efdfec01f303e9f0e901f0f8f0ebea
dcff01dbd8e7e9d4f7e3f1e90abce2ed
03fef5e5f4082211e502e6e5ef10b514
eedf340b140e0005f4fbfaf90ddbe5ed
e2f0f8c603cae9d1f4ed050b06d70ef5
fbe0eddbf22a100bd41af3e0e8f4d4f3
0aec010efaeefbf82e12170adff2edf6
d7d6ed01fcffede2f1f0e8f6e5fff412
fa27f7e900f5030cf2fbe0e1ac14eee9
e2f5eff2d3e117fe030aebe1f5c3e1f9
07f0f7f5d1fcf7f51608c2f7dcbefd0e
21f508f5fef1edfb0aea18f92320f0f3
fdf3f2edd9da031be40ef00013fddcf2
eccdf00df9fdf5e5f4fdf2caeae20ff7
f5fefbc8fd03dd221be7ed05fceac7e7
fa0cee0aeff5f906eef4f0171bfbfdf0
160ad3fcc502ebe9f5f4c2e5dde804d3
facff0dbf5f5ed28e6f722120fdaf7c8
05f4ef0de709000cee033c33d62f0110
ff0506e82b1d152a1b1dd317dc16f00b
e3f211e7e103eab21813e519dfef1c07
fafb0fe6fdee00dff50302fbfa07fff6
d92cdcf5f2dff0bbfc0f34f3fd1e370d
edeec4f806e214f9d42227b7f9e7fcc7
0e0a2301fc0413da04e7fa0712030001
00060105e6e8e324e1c205140004fcfd
0f132e1efa11ef1df2e616f1ec01dcc6
cb0212eb27d1f52818c7feed0fffe30e
fe1a09151cfaef001ff51005effafefe
f906f1d0db07ebf6fa0ff713fb11f3d5
09041909f5f0fc0319f8f8e0e5e9ef0d
19f8050cd6f51125f5ff1709fde413fe
ebfbf7f5e6360cdd03eff4fa01e7e90d
f1ee2728e8e51f1cceeefd03caffede7
caaa2f0810de16ece9eef917fc080614
eeea041eeb04f6c8390805eb3cefd80b
13e80bfffa15cf14ef01f61c0916031a
1e270e05fd1a05ce23fd120611fb0200
08e60400c9df07de28ea0de203070214
ec030a023d2df6f91d13d400e4e5072f
f0e1c4ed040d0a02e023c9e9141904d3
ce15df0d03c2f3d4d3f122db05d417f7
2004132a09fb06070cd4eaf80517fb1f
ee12100fe4d20c00e3fb0d06f5160101
dcf5f8ce24dbe8d00df52112afd10a0a
f2f1e601f91f07e7f310c306f1031125
eaec0dfcfd0cd00d080c03eef3f31015
f2e2e615f5edbb311302efeddf110014
af01ef03f9174431d70af600f1f2fc00
042b14efef0100e804df1b13e2041906
f4f7c7e810f10301fcfbe3d6edf01aee
1f130be9d9f8fdf5f91408c6f73410f9
190b22cac91702ef0efe0ad7eb09e0e0
f117feedf215eb1cdad0f8f72dfadfdf
d5f70bfffd00f7d8e0ede927ecf8d2ea
fbcb1ee6c2faf7e10ffcd6d90406dafb
e3e1c9fbd6fbc8e423c109e8f5e6f0ec
3901ea1e0eceeef110faf6101c130dc1
03d8f30e02efdaddd5fcb6e3251508fd
150007fedcebe1f71cc8ccd0e3e9f9fa
18ecf8f301f02b22d600e807e9ec1ce4
e513f9deda0ee00b1cc3f709d050fc23
f027f1bdec09ee0114da0328ca010827
e0e9e2dd1aeef50ed0edcbe202ce0b26
d807ed232109fbdce710e3e02312041d
fff8e8f327d2f9edff1ac5ddf738ef48
08fff8f1eb1702e8f20eed1d0fdfe7f0
060024ddebeb0af812ea08f5ef05eee6
12d3f90cebdcb5f5081bf0defa16e3e9
d90ff6faeaf6df0f0cfa00d9f4f7c1f8
14ecfd10ebaee3e3ff1ce303d1ef18f6
f511f0f8f8ddd9fcf9030bf9feed05f1
fd16f0f9e8e00e2be613f3eded0beece
e81de5013f0f04010f121b0f07f3cbe5
ecd0f9f6ef00deed3c01d72006e1eae9
1a09150308130014290a12f5e01cf6f8
f901f4e72411f8f6faeeee200211d405
e70bf10dd8d9cdc208f0e900fe05e1fa
ff0acbe907f91cfbeeee1cd803cf1523
e2f0fab81611f91714ea12f90322db1f
0c2a04d2f80c3f08fffec5fcd016e8fd
d40b1bf9f6e5fd1c07f0e90cf7b3dd02
cb0bf72416eb20f4f419da0715fede1a
ebefe905f2ed26060614ff3bed48131d
33ecfc0bedebe8d70afc0cde3be713da
fc1c0b150a0701e210ee211009d1e3d1
fa1c101ee50a091a12df0af1eed90819
0302d1eb011bf1d600fadffd1cfe05e8
fff7010625f8df01e1e60de8041eedeb
0f25ec2702e50de7f1f43a0009ec00f3
28ff0021f7e4fb15e0dd070efb1615df
0a13e603e4241438c6d304d5f312feeb
0be2c9f618cce63ff5bbe4c5113204e1
f81413fac80f19dcfff00b0613f9fada
e517d2e0f00a0d00fa1f1cac03f1ff00
d228fa0d13f2f3fffff8fce3e21b0ff7
0e08f0fce7f9f7e0151e000d24e9f9f7
f20cf2f2c7fdf219f702e50c1df50604
0eeaff07cdebfefd14061301c4fc03ed
03093809e7f9d6f62bddfb01f40feffe
060a0518e6c91a2a26eee2eb38f6ed07
d912eed5f0c21ff7150ad5c8f8f5f0df
f20601fdf81f1126ec0feeff08e606fc
39fedde42726ffeb0ffc1aedec002fec
1c18fb0c0c05cf1520f1fbb9f1ff0ef4
f0110de8fa12141ac1f30f3609eaed02
fadf1ef0f50405e8d7fa0323ddd7f909
d8ec05f10fdcff07e8460422dbe9222c
1b0ff1dc0a04fb17ccf3d90108210dc8
f40a23e93100e8041111242517f7f321
19f409ccff16cd0c1efe1a3d02bfdc07
161251cbfdeedcf31108fa22fc330b13
edd7ff2324ff15d0040401f4f6d9fbfe
1fdbfb0c001cf8dc10f9c402e3f1d7f1
0ef6f0e811feecfbf517fbee111dd2f0
22fdcd190ce80eb6e51121d30514f011
1fedf926f9df1afac8e9d609ed0be1c7
dd0efde9e320e5c510fcfa01ea04e4cd
f60afa11e0df07dfd7f4dcf3fafcdce3
a9fee32f10f217dad405f513ebff12f9
0d0521fcc12731fde2ee10fdfae1ddc3
0b1a06e3f5f51407c6fdfcfe01f1bcd6
e1f2addaee1124e3f2c6ecddf621eefc
0de4f41af1f5fd1d09fb13fd07211f3b
0b130eef1f0de31100f716eccebbe7fa
dce6fde3ea1f12ebd2eaece2c9dae109
ead7f70c061502032aecf6e504e6c8fb
0eccfdeb1b1508001008e7f6edd4e6e4
0ce0fcf907e411eef9e60d14d9dafe0a
0ee400fe06f50104ed1719f8e5d1fc0e
fbccf9f2c423f514e6f4e3efecf3e7ea
f6ebfdfa010fedf3fef60a1a11f1fbfc
f0f1d50518e0efea0e23d4fb1fe118f2
1dedf524090fd608e101e505fde71afb
f5ec050d2feccf1c0ffad9d8ffd31ae2
f1e3e7e90612fecc05f6050cfdf5f5da
e4ede6e217e2fad2d4e6e1c021080ddd
e8c70c15f102fdf11a02efffdcce43da
1800d0e9f803fd1bfd12dbe00701e5fc
fef9f6ee020ddc11fdefd4f2e8dae8ee
1dd4dde906ffd9f3fff7dbfe00ef0604
dbfade00def900cdef0beb01f8fd09c8
fbf2f9da011112e9fecf0305ec2beffa
f40be90ff9ea25f0ddf4ca1beb1a27ec
e3f3c700cde8cafa25fc08f92ee1ff16
072410e8dc211f0c05f3f4fc05e9efe4
fb0c1122e8fdfe0bfaf809eee00a0f1f
16e70b0115cd0f0ff7f6da12f5010dd9
f7e8ffebfc2709f1e82c0bc21f132013
f712f4f6ef0a1a030d181616d8d627f6
f3feef0a26cb09f90ce91d1cfc14f607
fd09f61616edf113f4eaf824df0ed4d1
f90002010b0316f1e121ea151207d8db
d31906d71717ea23f807f30b010ddd28
fb11181f27f1ecce15d20ae62443f319
13f0cd0dfbffe7f93216faf22afaf6d2
f21108d20bf21118f4e610f1e6060ff2
1823e5f70b2a1305fd30161817d90dc0
09e9fad5fb05ea120be3040b12ec0d08
bdf3f4cd1ec0d1000ceeeeb90fece81f
d8cb19c11ffde10ed516fc01db00eb00
ffedeecf0d07e12bddf80213ecc6f73a
ed9de0e4fef40707e43003dd02f02efb
309e1905121a1119c70ef91cf529c3fd
09bce701e8fbec22d5f9f9ffd0fcb7fb
d20f09300b0dd916e0dce9d0e40ef3e4
f0230329f4e6f3f7f8c4faded80cf617
1e04f011e9dbf60305c2ebefd3e5f2f4
d51cf0f60bd8ea17c5ed2dec02220506
fb04f6fb06d9eb010dff18ff38fb0c08
dcf4d9ebed09f9ebe2161c0a080df801
0c1dd7b3fe0be92af2fdd4c7f4efeb17
05de22d72824fed204e3cae819f0cd30
dbe2f0050af1c9c1faebd101d3df0c2a
fec9c6d6febbd419dbeba9cd0803fc1b
17d3edee03f1e7f6fd12eed5faf4eee0
dae7bdbf07dfb5311006de2a1efff30b
eb12ecd1fdfceb1d06f5eaf1162fe4e8
1522f7cf0315fdf4fa1adc080c030f19
ff03cddced0de50d1004ef0706181807
de17e0e70ddbfbd913132207f1e2f81f
e5dcffd6ecf7daf7121604ec05d0f3d9
efe805f9d0daacbb243624f303eefac3
f8df981824e011261dd2200116f3fec5
b4e9001ab8f1d52c2312132216b7d7ee
ea182727cad7f5dae8b7e7ebe3c4f2f7
0fdfd8f7e7e6f704e31b17e604060bfa
02cf11fb09e20eefd2ec32da06fffd17
d23b0ef02203eee3f2e415e9192c08ea
cb07b316141e12c6e8f7d93dfcf2f5e9
f3dbe40c2efcfd09d3ed13f0ff0aeef3
ffd5072e22cef0eaf0dc06d9dee7d800
cfe0f2e619fe210820bde1eb00e40909
dbe4e0fd0522fff2dad6f30f03eef909
08ebb7f234ddceda0922f4cedbd2f5ec
11f5fc081fffe50a1013faef0a100c15
fcdee8f1340fff0bcae81cfee9150310
e6fd1ee50102fd08d7d2ef1905f5f8fb
f8f7f21c1504ef1315d50bff09e41123
ef330617f31ffafe03f5f312e90108ed
eaef10fd023728ec3005f701d90f0a1e
d4fd12e9f6e5f6c8d0dbb820e4fbe7f4
26e000d4f503e7e0e91204e4f0f304e5
e70dff13f0f108e9174ce8f806e719f4
0f171afed509cde844d1e62ff91bdcfa
c1c9d8ffcaef1ffef0d61ac3f521d4f2
cbcfe80b052239efdbfe0113ecce00a8
12d124f8eb11ff14e70800f90f032421
331df9081a27280be9de03f6e4ee45d0
17d507dbf62340ff17fde0ef00fb01e5
c80fede808fafae52e17ecf91ef01ced
e41904dc15d7ef06fef3b412faf830f3
d8ebf6db21e7d8ead4e5e4fcec1ac6fe
f0eef1eefedff311ea3915db3dfcd0c6
eb0332e6fdd823e32fd5c6d2191428f2
0d07f6230616edec13f9e1df0e19f503
c213e8100ef71345f3ecfffdf0fdfdce
f2f7b6e8fed6d71a1422ebfdc8f9d0b4
0b1bf8ca0dce00e30fee0efbfcf9ff04
0919ead9f4060beef1f902140a0c16d4
28efe9fac8f70210f0fd11eacf10f6f5
bef8eff6e6e80cd2d1f20de6e9ebfdfc
fc023711ba0bd7f2f103f6cce7f9e634
e5050c3507f5f409100cdaeee8dcde12
fa2606eee9d4edf51ffd00130ee811dc
d7e9daeadfe3f90ffaf51bf314f824e4
b7c809f61310241a25d60ff206e70f1f
f9da17e90dc0c5faff0b06ccdff5d7dd
feeafeda0310f7dbd1f309dde5e0d4f1
fd1a17f3dd200defd7e505ea13f2f304
add5def0f8df06deedeff92bfcfffaf3
070adb06cd01dfdbbc200bf709e424af
0229d543de090fcc21db27f407e506d9
d9eae815060729e121df0dedf9fddaf6
0be8efd2d937dc0017f0f4fe1f1520ed
e6cfe009061dc9eff9e10dec370415e7
0d2917effb200edbef5504dbe502e21c
05d7cdfbb9cde8d719f225defe23e403
00d2e01311f7daf4d9ef0eee2af600d6
071e19f9e607fd171c25f4bf1617f7cc
11092e320dd20cfa2122dd04e5fbf4dd
d7ec0e01c2f905fc0725cf0db70f1f04
0506fce90fedfa1712f3f5ee1be10317
ff2807e601f1dd1a070c170af7190707
f609f5f313d4f8da230adbcbe909dde4
3714ff1e10fa3107ec1aefdf12f60c20
c4fbf0f205c323e43c0cfbea05e8edf8
06e5d7f5f8cfe508c6fcbaf7e3f1cfe5
e232f90b06f2e0e9ff41c0efdffc0b17
0ae7f8e3ebcf0238c41c1d0bcdf7f0f9
04c9eef1120af015e8090df31d0df80c
f6e1da17de09daf7ed0ad70efb21e8f2
f5efc0edeaf2e4f3e522fdf014eddd10
dc0fe0e518dcffb80a1ce9ee00111501
ce07e71a0c06f1b2eef903b0d314f5fb
d8de273a0adfecf1fce8b5fd15d906fb
bf151ce71ed1eed7fc1ef5fdecf20f2a
08f3fd0f0b2b40f3f0e43e0ce5c63103
240cd8cb1b01e0f7f7d4cfe824f4e0c0
00f209b4f9150dc803bf170d2521f4c3
05c6f611d9070aebf8fbf52f0ec5c4c6
05cacb10e715f8bfd3e3dafeb7d9ed02
160be92218e6cd0adef3c518df0b0bf2
0ef8e8bc3b08e9e6eaff1f10fde61ff0
f798fa0422e924e4f5e9d317c5031d02
cae2d3f5000709f5fdf1fdd41300f0d8
db091403f4f2f6f3012502ed38f322d7
01c62703f4bbfa1d0ac417030ec80846
05fc1e310ff2d81dc0efe8290ecef91f
2d0f3afae80617fa0c08e6edfc1105f2
0df9f45110fa10e8d2fa2c0cf62e0417
dee11304d0ce18ff062ada171732eb21
04191400cd0e2506091bfdfdeef91e31
c5cde6ee86e5f1eeb9f0eae8f5e80eca
ca2d1aecbafbddcbbd18f8eed7ef21ff
391713e7d9d1d4fadb01fee3b3ff2ddb
e9e918c60d09f40ec9cc1900b9d9dbc9
fad9dfd705c1a2ecd4e104e5e4d6c7ed
0d11f61815f801db030ed81ff410e8f8
16f03a0bd2fe3efdddf50c070ef0d8b5
1d1020ddf1ea06fab600082ce3f5e400
37f9f0b52206db06cafafb16f9e6dcfd
18ff09e511ee1d13d4d2cdee0dfcd5ff
fe08fecff60fb3eff917d70c0215df1d
fe0d03e603c5d208e107f70310080ed8
dde1d91f261f19db2c2216fc0eeeeae8
dc21e30af1cd1beefaf9fdf7d726f4fc
e71dc304ebe7352a1015080cdf04f3c5
02f0e43604de06e2e1b8e0d1dd1d09c1
00250606260bed11efb20ce2fb14babc
17cacc550d131722f1d92ee8c80bf9d4
d60ff9e2dcd41007eae001ec27fae910
1206e726fab7f6d2e1cc18f7d4e8d5f8
f8d1eaf6feeb1eeceee6e3f6a4fdefec
c0e9eb01170fde980d191713f3d2edfc
0108cbbedff4e50b0c27ed0bf2eef4e6
f2ddcbd429d6004fed06ef0edaf1cc1c
1103d3bdf50ac922181cebf3241f2cfc
1724f70401f50e2ae7ed08f22c232222
f70fe917e6f7fbf416d8fbfc3210f442
04f3defbfa22e8d1d90ae3f9f4fc03e4
11e6120216e20bf11908df0723dfd1de
ed12dbf606ace31000f2e9e608d7df2a
1125001fcf160b0efb1b09f21ef2dcfc
091e120ad4ed18002302e009040ff9f9
f9ebcff3b1fbf91403d2f8e0eef8f012
0ada0403d505d20a18e521f905fcf1e9
d5fb1442d4f0cce4f628011f0bc5f801
d9e7fc11eb3a01f1d8cff702daf6e60c
08bee814f4fd2ddcf21efbe3d6f102dc
fbea0a22e5dc1f1aea14e9fceddf1ae7
e507272808f911e0fee5f8ecdf18c3da
07250404dde2f4ea0f00b801ebeb27e0
f9e90ab1ecc41cd3faf9e0f4ceeb18fd
caf90c19170a1edef2f41a15bf29eb0a
f82d0e1019cf0df2dff6dfe9bdbd0dea
b9f512350a08facfe6df0ef7fdf0f01c
b6eaeffb0fa7e9f6ade8e0cafd03e2f6
14ef140ae8eafef505ff08f2eaca110c
00f6e806191817e4dc071df7e3d30dcb
cb0deffc0df51aefcf2e27ed12031fdc
2dfcfbde0803fc14fb0bf011f0e6cf04
0f1202f2ecfdfc16061f23f81f03080b
1ff8f110ebfef1e1032c151eeff2e7d1
d301131bcdec04170ca609f2f6edeb07
edb4dfc90dd8e400120dece6eb071fc4
172edfd920e7fbb423eef20bbaefea15
17f6c90be0ec022afbdcda0bfe260b01
01feeefafbfeccf2fa0517eee60ee711
fffb40e2d910f111e0fc16e1d2eaf011
da4af5ef06bbff11f9fa1fec000b0834
c4fc1515f0f3c7caee011bc7fafb1cf3
e2ee1603de0000e1ff1a0cfdd91206f4
ffdde0040d27fefb09d82b1f14f01016
070ce41c0cc91cfe36021bf0f6f2f70a
1e2520fff9e726bb17dbfbe1dadde2c8
f8fcf3e30ef0f2232dfe0bdd16de1433
e4150b200524f2deeedcf5d8c9ffe0fd
e7f90ffa0eb7f4ea35f406addef3e6d4
d118f102f6f8dc1006efdd0be213e7c1
30d6c017060af3c4e3ead405a8f8ecdc
06d7dff7c01b03d6e4fcdf1dd5e2b1fe
f10edbcce50006260fd0e502f8bc0d16
cfd6d007a731f4f6d407f802f4d1d9e3
cf05ec06f1ea11dced050b01f64602b2
21d2d4fc1e0cdafbf4da0af918bed4dc
f9f7130cdcd5f2f3e6f7e8d1e401cc08
0efd01ff1fea05ece7262fd4eb160d04
d8e7eee2d313f0000aef02020546b6e6
d913bee0e010ee171d0ce5edd822cc00
e0fef7b30604da121b19e4e4fbf3071b
e911c4da38fee5ed03fe23e3f1fe13df
befb04e72aeee9cdfce9f1da00c0d1dd
c5dee60adff212d8b2f802dd2acbb8e3
cb21090411e02d0d2df8170a0efae8dc
ed0ae1f001e2fbf8d7edd3effdc4d0f3
e7c1ff34f305fff31e0eace61ddb02f2
1dee2bf3f7d1f1f4e302bf090bd4fee1
efd8f6f1f506ffeb00efbf1df3e5cf00
e416f014f812efdce805f500e4efd3c2
fcd0da0cea14c5c01b2af90dec08ef13
04b9e014d9edc9fcf0e9f6f1070516fb
d304202ae90aedfcd9f7eccd18e7eae3
dfecc3f7ef0ae1dd110df909ce370e2b
cef5b2ddfbeef70407f1141609fcce27
fbfae0e2e01f0a1cf10accf819e59cf2
e8f0d71419f61bcefc07f4170e08e309
cccfd8fe37ed23e5151dea2637f4e0bf
a6f43bec0cedd5e41f1f01f7fe0bf3d4
f1efe135d121eeb8c2cb130ac6fae7e4
f73915f9090ae7efe5fd0607c8aedee9
1e190dd9f716e91abeda04d3dbfbe9f5
011ccb09f6f518e2b3f9e112efb6e1dd
e0dbd1f0071de7f0b6fc03ebe9f4f9db
ea22daf630e5d9f6c90f12e8e3121a11
03f6411fe9dad6eade06bbfee6d604bc
21ffd92fd6e6e0fdebdec417d50cd80d
e71607f8e512ecd9fdeebff7f1edf1f0
c0f6e1e9e4110b11de061dbe0af1e008
f70904ef0c0e2017f5d8e5faeafadc0e
211f100f0f01d608cd00bdfcf3f6e2f0
ee1de5fff110ead206e3e50fd0f20326
3539ccecc301f0fdecffefe5e5df09fb
eccdddd9b0ebff0bf3fd1dffeb1eeadf
cf08fa0ebfda2bf5fdfce63d21f10ffd
eb12c12303011a0e0bf8f5023708bff8
25d405ed08e5fb2e011ef1340211d91b
052cd4c7e4eaf5f00efa113617f12f01
d8f7bdfb0c0df02cec0e0c1bf1f20ce7
0800af00f3dd0d38f2e71cf4f00516ec
03f2d8e8fe19fd29e0e5e5111403f411
c1f93eec18eef2091b1009eae6e2d0f5
cd1000b90cebcb243718ecf5ec0bdfe4
02ea0d0babf5181bd11217e4e81823ec
f9fff508d9261e0903ecf04927ec2d09
22d6e8fbdee2ef16d506e721feefe0fd
040c04ff09f72be6bc060bc2e8072cf9
101be1c613fe0e150e1018fb0ef11ad3
fffffabc0c0eefdbfb240018e6ebf3d3
04112e2227ebe723dd0009ffff20effb
e8f5fc3cd203f40f0cf2d5f9fcf103ff
e4d3b9f6ad0ce8001512bee31c0cf2d2
e3fd12fdf1e30b09080edb07f805f81f
cedd02da05f6ffd3f51122fdc50ec7ea
f208e409faf318f40011f5de120e14cc
1af50211fa12fbdd24cab21643c71404
de19edfddc24ede21005f3ec01d5fec3
f10b0d18c3f0b3f8edeffe02ce000c00
efcec717e3f313fc0913dfd6c3ebf707
0babfe0a2dff21f00ccf1cd5dce607f3
0ff5c80612e5ea09fbed1deffdf1e70b
0b0b11cccfe1e7bae2e801f81dd800df
0215fa25ed140014f1f7d71d23f00afc
d1eae824afe02406f8e4dff01319f60c
f426070ce0e3dedadff20fe9f5f4eefe
ef0aee01e802360a07dcd5f0c7e7bc08
1b0304d0f9ec45f8d2e1ebd602d1efcd
f1fc0b0e23e4e9eef724faeccc19fbfc
f2fcf0d5f618ebfd08f4cc01eef9ee0f
d82011c313b900efc3e6eb121202c6fa
051700f6f5080416e913b6fff0f41fe7
2a09d5d5dcf4f71613f2e8f006df26ff
12d41c0cdf11ede2e5f6002916f1020f
ea1cd9051ae713eaf7e818121dd8f2b2
e71ab3f5e40dd4c6efe5f9d11c02ddc9
f9d6cd0ff825ffe105fec4d2f4fa06e8
0b04c8111508fd15d5fed639df1101f3
070ccdd72cfa0c2e16f6080eebed00f9
10e4e7f1050614edfffc1afa0ecb0aca
12001dffcedb0013f1e6ded6adfe2cf0
01010dc9f713f518d8121402dc2505ec
1826ef24e5ef40e0e3171123d2f90cf4
0af5202ce2e521e519f7f41926eb0c03
01f7f7e4f003f91115fef60bfed7e1f9
d6f501dddd0bf5fcd2f5bbeff0d0eff7
e7f2eeeaf7070209e6e3edcdf4f6e8f3
19e1f7ef0904fde2e5f9f4dede000bfd
faf9d10111d4dff0d0daf7e0c2db00e0
f1d4140a14f3d818f7e3071ee705d608
e5ffdb270d03e115ecf5d6eaec1314fd
de04d205e1f9ede90bfdf2f00dff2ce9
f6e1db0afeeff3e2c2e302dfd407f2fd
1d0ad006fefadbdbd808f8d9eb05e2f6
ffe5c7d6def2d6e2baedede5f707ec01
de01ecedc0e0f1100701d4f4f00fed01
f1fcf414e8fdc0eeef07f0d9ede7ed04
ffe1f9f9e6f7fbe3e5d803f306e8bfef
07f51711f216fef8f022feeaf0fefdf2
fdf0f11209d6e6fdf316eae01cecf8f0
09f9d8ed0ec1f7f9f4fa0516f1e7f4e2
dc05f7e9c6e50b0609dc0b0011fbdaed
05f6cfeab90beae311e8f91b05edeb19
fde6e8f0f006d5e6eacce5fe19ecfe19
06d30513e208f7d5d2fb01ce10d7e5fb
ffd201eed3d7eee6f3c90e01f8fef9cb
11f1e6ea1ad7ebf1d3e2d4fee6d60903
fce7f710e206f40900e5e9f8fe0bff08
e808e2f0ebff22f8ceeb08e0d112f719
e6fb00150ee6dde5f2fef3f9f8190bf6
dadff019d9ee0604dffffbd1da07130c
ecf5f518d9d6ff24f1f91e00d5fb1dd9
d7ddf7f70508e4ff07f9d606e2fde0d8
e4c9f5ed07ccf1e4e1f50ad9d7f212e9
e8dc0603f9dd03f6c5fff2f1f403f6ca
fae00dd3fad6fdd3f4ffcd00dbd2e8d2
06e60117e61f170f0414f3c4192a3bf9
09f4fdfbdadd0af2fc1ed9c4020300f2
08e2f7f40806d7170b01eee4eafbd3fa
1515ef0f21eeece31cf5fce016cb15e4
f42f04f6f8d7def71a0bd4ea0e15f5fb
c8b106e7d5effbf4031900f42106dc0f
1fde081c0febfc34070e05f807e4ddda
f1eae6e4d9f9e9e704e4e3e7a5faf627
eaeff2f930f6eade03fad51f06dde0c7
100cf8e81507fbf31112fadbc0082afc
edfb18e4f5e3d0130408fa0104bee10b
cc0c09bd0cf9c6d6f8faf804f0eff339
fdd20339fdf852dc290401df18e3dfc2
e1f30c3c1112e2db10d1efdceddfe9f7
e214111008e1f4f4c9f5010df0e0dbc7
daea0afe0bf5e702f6fe22d708bb0bff
e5c00bdc1edce4fe090cfece0102f3ea
a921df1a15e906141e08fb09ed140eef
fbdaf5151f311e120be5f1fb06eb1b34
0737ff30f0d02eed200a0704fc1f01f4
f02e0c320cd5e227f82ce7d5c8eef91e
06f7e7d5cff7082304d4eceafe05ef03
23c910ff63210ce303cd4d01f70f02e8
d80b1707f0f216e6ecfb22e4dbe1d4eb
09e60ef624e9f012fdfe11e8e7e40330
0315f3092503e0ea16060af2e5c5e8e4
fef6d6ecc0e7ffe422e2e11a15100af4
1900dd20fd130ae518f0ca1d09080edd
0028fdfdeff606db0d09ea18e41eb3c4
07e5160349db43f5d21438192401e204
b4c5dc04e600f2d20311b207ece31fff
f6e0fa0fbb120bf2ccf9dcebffeb29e2
0704d3cfd9093226bffc271cedec15d5
c6a9ef201fdeeed204ece1923516f7c2
241ddd33fd1ce0e90305e7dad201eee6
32f6072af2fe1b0515e3cadcce2fdf06
1412cb192012fd35e3e3ebfbfbdc06cc
fee01421071cfb1c2fe036efe2ecd2ef
1ebcdef8ebeae0e8d4b1fb180ff41f93
bc06ea0100f50cd822cf1436020c1c30
e4b4f1e0002b060df7f0d52d060807f7
0bd234ede8fdf3d802f9f41415fedf1d
e607e2f81d1be419e8ffe0f40cfd08ec
ffecf7d7cfd307dcccf6f80c302ee2e5
fbed48bef2f7f5e9a7e00beb00cce30c
ecd3d8d1cafeeb0cdc290819f123f7f8
fa1904fcd9eeeeef030b011bf2ce0dbe
1a13e008ead919ecf3fa0a15270820c9
e117e5ebd0d5f2f8ddff830ae1fee5d5
eccb0005cae61407c615df2401111800
f12ff702e5d625ff02f7ebfbcdfbfae9
0cf301e8d7d5aa04e6eecb26d7efeaf4
d8e80e31f1eeecfd051825fcd5de11e2
2102e8ee1bf7d2d4e6d429d71bebe3f3
e0f7e0fd1105f4c80beef605e40ae9dd
e901fc02f80121c9fdc5e0fadc06dade
f9f1cf0df8edd3e2fcf4e527d6f53dcc
15ebe2ebede5f40e00d4e5040bf6f802
141dfbe8f1f4fc13edeeec05f1ee09c5
28d802ea1de3f203ea2bdc27ba3326d4
0509e0e5d00cf601320ae0fa2207e804
1befd9cde6f0f40b09c90fe0f2220600
23edfeef0afef305270be2ebfaef0911
041e191f11e414fefaf6080defee062b
1201fa00f80511fafc05f7071ee3dace
080ebb0a19031b06ad0c0bd5ffd3bcfd
11ef19cdb10e050506ddbb01dbae2206
0ee8f917c81f03f8e4f7e424f9d8e3eb
c3e6ccfcd2e4ed10eff104171def05f1
ffcef50902d3ee0de0d3e0d713f1b81b
e7fc06dcecdbdfedc90bc3e00bc7e2fc
fc4b04e233dffd2b0af3ca0aeabfec23
08f50eec111d05e0ebf8edfcfceb10e1
f0f31cdffbe413c310efee161efdfdf2
06e2f109e1fb00ff1df201f1bab016e6
041a1a22d4eefec400da04ecd7f0e4f2
eeebdb0e04ea2cf50bebe613c6ed07fa
15d709e7d8e1fc17ad1edde7dc200208
f6fbeffffdde22fce1f8191be708ebe4
ec03e8dc0ff1f422f2f700f1f806efd4
fafb0503f4d71827d30108c81d1de6fa
ffe6c606f3e20a0fec051c150ff304f3
e7e7eaa220e0f41afff0f50b0a2ff9ed
f3cff909221ac6fdd9130c25fbeaf2f5
e4f7e03cf4eb130ef8e5ec37ff04dfed
eb0607c7f2e9f4dfecf5d40cf9eceeeb
fec4f61008e9f6f81126ffe0002aded4
abd8c6fbe2c8ede5e6e3fc1800f4d7e8
adf7cf10e8fef204eddfe1091be0b50c
14e1e1eb0d0bfff3f204ea09e406eeda
fe10fb023fe3ede9fde1d7f4ecdbfbfd
e511e315f9ecd808d2d801e4eef9f003
0d2dfd012cc9271800ec2c000ff328e7
e00115bffbfbfffcfafddbfc00110cf1
eec3d4dbef170d24dfe412fb04e0bbdc
ff19100b09f1c4f6d4e9100d1bd2bad2
f210e8f3f2f321f91dbda2dcf2ef04e0
e6fccb14183f1c10f0fa16de2003f804
dfd6f6e2e70fda1af5eceedf10f7f906
e705d714fc0d16ede6fafc25e104fde5
0017e9e210ebf4d51c08eef40705e0ed
1efdfcd5e60915e4fffcec0310ee0418
0609de0ff9f9fcdae42bfafece30c726
09fd16d2ddb3e20009450704ec10fdf4
e2cf150af804d9e407fc14fcc7efe6df
fef52cbdfd00e4ebf20b2606110ed709
f2fcf4e4feceffedd02203ecff07e411
d8daf5fe0ecf02ecba17c5f1ccd2f1f6
fa031805f3080ecb1a0d26f1ef032ce8
0bfd06f7e9fc1acfde0d21cedf02d8e9
d6f20bebd609f11ced25c1ebe81ae8c8
ccf2c8180c2401e1dbc4cef2e8fee4e1
fd00f4db14d816d81dd5dd0e270ff5ec
38ea0eebce10140d12e1f8f6080ce3f6
06ed041f0bf4e213f0e3fb091ded1df3
dad810fd070ff3ead0deeafddef50b23
2416fab0d6eb30b9c6d01539fbfbd50f
00deff0820f2ebf30c1f10f115ed16e0
03e1c406d117f7e22413f1e6f9fa1fea
f7f5a51bc90507f8f0350bfa2105bc16
fce2f3e608f409df02f3d915f80702f1
e2e2eee900ee08de04e5f1f3fe0834df
1cf9de0ae104ff2cff11f2be02e8fc12
1412ed0e01eeedd1e0c60501edffbc10
0206fb0cf6e413f309f4f7fcddde01e4
20f0dde2ebd209e0eeeb073535b60512
063613041bfad205f8240aea00cd23ff
d70cf1ed1affd1300412f0f91022f8f5
dad7d90afadcfce637e0f944101bce0d
d80e000b11f3f3e01e08edd6e627def6
03efec10db1c04e62bedd50ef41f03e7
25f0fcd9141408f6b607f3090215e51c
ffc921e20ad1ea1f1bd4e704ffffe61e
dee0efcdde052feee8fe140d08d502d8
0f0aedd1daf92ae9e02312f4f5051fde
e108c6f8fe1800e0da0ade3ff6271e1b
f0e8f1ece7e0e2d4e7c2f229e7ebf8fa
c7f504052608a4100bfc02e004080ad4
d10ee4f2082ae7d607f1d935070316fd
d416d90e05fbf60e23c4e921d0e736e3
e2efee141201122ce4eb1f02071216f7
06d4c10aead3f2f92bfadcdfdabaf0e5
eae9020300e9cc0bf3e0c5e9d2e2fb0a
ee39e6ece3ca0007fdeae2f9f1ebf10a
1707f719f602f9fee4f2f4080bfce9cc
fde307e006dae30cfdf00b17d001d7ec
1ae3f7caf1fe1dd612c0f1fec80de23d
daedcaf1df01fff620c8f52b1cd4f806
e9c0e6decee8f7f203f1c12b0611f7f2
0f0f2cd5fcfb16e0d2ab0be6ca3ecadd
16f9cc0e2aed261c10fc203504e0eedf
f8fee5dff100be13fcf903d7fa13f5cd
e7f70e09fef3e5d304ecfdf5e9f4ff00
0f30ff06210fc924ee0b08e0dbfa0aed
e9e6cee0d5efe9d607fa08d304eaf9f8
130dc3e3020dfeff1af112fbf6d026e7
0711e20fe7c1ea02b9fb0022e0d81502
0325d9f7cfc6fe0dc3dfeaece9ec09f1
d2de15fdf60a1ee4e1e6e20e1d07f43e
f1e5310d27fcf3d4dee7f2e9fcd9c50d
bcb9e918e5e9d72bebf306d4ec140aff
feb5f7e024faecf103e0fd170a10db04
1d02230d26ef03034ef2e91a2deb1de6
f71ceafe0edfe3e0f1f7daecfff4deca
0ffe3322ea2307dc06eae9e702f2ebf8
d00ebdcef6e00a1f04efd1f8240bd4f6
04db00f6f7221a06061126cc23bfe1ec
d3fb071b1551ffcac61907d6eb0017e5
fae305eb04270d0b0edaede834010f23
e5f4ecfdf205d4ee2cda36ec0a22dce5
e5d3ee1f02d1e3f3f3c3f00af91dd0e9
bd07eef2ccf1161d1f010f03c617f3ef
eb28ffececde05f518edfee7030bf707
31f1dddff3cb0dc83bf4eec0fe28d406
f7f0c9dd01f404e62ce212fabb412415
f117fd1ef1e90dd920e301ecfbca06fe
f6f6d338b330e9eebade00ac05f3c8ef
e6010a101bc41b13fa0c30f61cea0611
0d070ac2cad818f9e011eefafcdac6fa
02f7feefd41beced1df9a608f1c49f17
dfff090a2716e7eb14f700f32604d0e7
e7f202ccf83507090df3fc1ee4f901f7
f9ce00dddb02f60606feea3a01f5edfb
c805d9f3ebe9f9d4e0d3fc11cfeed4eb
f7a3b6fbf3ec14e4ca06332fe716bd09
1604e90035eefe1af311192a05fa0cc9
07f8bad31d0b36211f0a04ee06e5c808
e5c7febe08e31af5fe25d31320f00109
f6102af80bfdecf2ecdfed01def9d709
f5baf90ffa1fd025f7200ce7dff7cf03
b7cf15020504c307c926f90703c7dee8
f821f5f629eceffb09f50af203e4eded
c9f7ee0de3d517ed2b2108e509f7f4af
f32dedf1f09c01fc17e2f00c0ee9fbed
e30affd8ecd924fbfc38b7ec0efde0ec
22b90e0fddd4c7fa27d5d7141ad50207
d0000d13e4fff9e0eb0308f6f5e7f20c
bde2030bd2f1f0d1ff20c1ebdafeedf6
fffb490828f3e60132c9ce0b05d2e913
b707d32f19bee6d613d705e009af23cf
cf06f2d705f4e2ffea1deb0fd6ebf6e2
cf25f2ed1d1706e9c8140cfef2d31bdd
212deb0c0cf5dbfef0050f00d517dcfd
210fde1a1320e7fcbbfd22fd1f04c5b1
e1e90de52504ffd2f802dc020ef7080f
0fa6160b2f08c206d804f4c3c1fce8d6
0bc50cf608f3f0f0d203f20405eff612
0cdb231c1b06ecd310a7faebd605f1eb
ffee1d0ee1e303e900e027c2c729eb01
dc42fc12d31304c9330df3cf0cf7f4fe
d4d9151ff318ee07f5091df1d1eaf6fa
e11b10eef1fae10ddf0f25200bfdebd2
d31719d9fcf2ece9060e063d1c0e11c0
f010fa0dd513f104cfe2e50321ca17fd
e7f6f402eef2daeed9fbe2ebf2ccdff0
09f6f80dd4f8f8f3e50508dabbf81913
30d10119c424e700d4d9abe110e30fbb
3befdec6fd032411e31c900313dee7ac
0bf3e5c513132f00e00deafdf920f216
0fe70921f8fee1cff5d3f4dcda000c17
23fe0b0d06dd2a010ccfd9d0f2decfe0
e7f7f30dd0e6f50331bef0fdced1e8ec
f7dd19fed116f3cdd9f0f4f0d02d13f6
29f0d8e0e815f7dbf5ddebd7fd26fdde
2d15fbd81817e8fcefbae9ec01cd0fdb
11ea03fcd22cfbfce10c06fdf60f1ee1
e501d92df5cde20fe11b18cbe3f72108
b609e9cd01f6d3d8d22bf7f2d2f703dd
edda1be0fee702e40517e1ce00f6f2f1
b60dd9fcbdc8113105dafb0839052bf1
0be21cd2eed612eabd27fff71a031ed5
d4bd1ffcf5edf5e01d15ef211f0ef000
f6da10fc020dce211500e7ef18201b39
fae95302d3daef12f74608dcf6f005ee
0e0fc6e2e61beaeef7ea10e7b002f208
04e1f6e01a45fed2dbf703cd9e23bff0
f4f0ebd20dd0f3d400fd07e8c0feeced
0cd6f3f8e7ee3ed7ea0bd502ce033fda
def80cd2e301d6c3bff7eb000ef42dc2
c401cef4e1d6b605da17ce20e5ea20ca
fdeb1eda10412226b5110511c3280eff
e410d0e600f1dae8ebb7fde3fd1bd3ef
eedbe60afe1507e4d9f6f902f6dbffff
1811deef1dfacf23d4e7deecebea0037
d32ff5032426fc21fdf3dcebc8cf0200
e812f929e2db030409d702c9f20fabed
c2d4f52ff2d5d805b1d61ae8faebcdc3
f8181f00f32acdfbedefe8f4e6edcb26
09cc33ede806f0271cedefffdbe3eb03
fccc1efd3d08fbc6110a00e59913b9c7
ddd71ef3fb010ac7fd23c8a91505e8ea
d8340d0c00e9032315eaece6c5d9f1fa
d0eee2ea0edff9022400110300de1dae
0fd305eafe210de9e70ad6cff1d42ed9
179fe5febd3012d20806f3e729001606
bc23cff231dde102fde2d107fbdc3922
dd0be2eafcd7f4eec900ecf0e7123b1b
ee05b41308e7dbfa0aeff5f9df091311
17e1fff8f0f6d915d8f7c5e505e0fb28
080203e3f7f9dbd9de02d305e3040ae6
003606e2d1e4fbeddc15df08f1ead2fd
04fbc6e9c90ce8100005f0dafcec1a14
09cd23c9e70a03ecc7f40de4f1ea1cf8
26f61517f4cfc1a906e32101f6d7c807
1bf112e1f5fcf0de160bfefb00ecd6ef
1f1ddae8e303f90ad9e303ecd2e921ee
fef9f41af8d5fff5381eefebe6b8d9f3
03d112f7e5e4e7d301f5cb0400f7c903
151d0cfcfefc03cdce04b214d8ee1ef5
f11ae704e0dac9e6c300e10703d217fe
ddf01a0225f8b8ccfdcf06ebd90ad5d4
fffb211ab52de8ffd700f4e4de01d8e3
e00905fd18febaeae4f8078de6f2e1f2
0f09dcd8ecf23c1305f2ee21dffa0d05
2e15db08f7f64301f50be61fd7f1fe04
0e39ead6e60d2feae9edf21622f8ff0b
22f3fbd00415230c06e915e7fbd601f2
f102f4d435e5f7e80ef6d010ed09e8db
fbf9f1f5eaf8e7e92125edee4a01e3bc
edff03fbe42a1ed0dbf0d4d6ddefe51c
26cee3f7fa41160d09e8190ae2c9f3ea
e1fdffeb1f0dfe09fad51cd3c6b2e6fd
142228dcf2120bfd1fe60016fc23dcec
27d50506e8fc1e19f407fc1dfde806db
04bad400de29faf1fae7ebfc01fb2feb
fa2f1edcc80cf703ff13f82d02e3fe0a
1c1afe23edf915d8e7d5d921dafaea0a
0fe6daf1c0fd0ec6dbdae317f6ba022b
eaeac9e3f4f6d2d104e4decc3af716d4
dbfc04e5cad4e2ca17f4f2e82a050a1b
0e03e6dde2c414f9b1e0b5e1a7ddd711
f207f1060ddfcb0bf0c1d40c03e6ef06
f8ed07f4ee04f4feffebe3def0dc08e4
dcf2d7020415db24e6f804eeeffc21ee
17facc3619feffee1202e1cf04f213f8
09f3c620f808efe3e7dd080403ca14fe
ebf309e8dfe9ec03e7bdd711ecfbf018
26e5d6eded29c9ed1adefffdd8d01a15
fbe5e4d2f5febcfebae5f211fbdeef14
0c1c2af4e8f4d0ddff0a0cf404ce2cf2
0ffae2ddf6f6eff5e407f407eee6f7e4
2829eeeaf6fb10d90201ff00d9e1dced
ee031a0b0c230fd8010bede910bc38f3
e2ff0f0204f7fb0611ede809f201e8de
d129c2f413f500d7dcfbe81c1aeff30e
fc1bd7fc01fd120fd70be4f5dd0404d9
040c12f3190cd20b06effc22f3fdf7ea
eef01928d20be7fbf605fc0bd417edfb
eef720ed171ec010f71f19d4d217ca19
fedcd8eae600fc13f1f1d108e201f8e8
05c4d8f7dcf4dbfecbfae40ff305c8f3
11f5ed09e4010eda0ad7cbf9fcf4f1fa
09d3e90afb17f7ed22ccf201fdf3f1f3
0ae7f3bbe5ff08fdfbff0705e8e8f1e7
07b5ebfbfaf5ddba1305020a09ff04d1
1fe708e9ed2f22e7fdd3fbfc00f7000a
fb35fadadf1a48fc0ed802e208f1bc13
fcf504f214e60f200afafdfdc4d3cbf9
db0711fae10f1cef0b06cef7fdf010ee
07ecccfde422e70034ee17fdefe916ed
07fff408de04f404dd0611000cf4f2e2
f0f82901e00c13ddf70efde00ee4dbdb
ff0211f2ddf81ddd18e4e2fbd801e6f4
0ab6f7f6f1f9ebc9f4f2fb09fb0b13f4
dd03dc0ae1dfd3e9ca050be2fafeeef0
04220cda0207d5f7f6dbe0cd1a120816
080102edf103d9f4e500f6fa1eccfe18
f8edc4ec07dfe1e9e1e222fa02e638fd
e7fbe81d1b10cfe3e9e000dff9ffe611
11ece7ca0bf9f7cfccfccff2c310d10c
f6160305f303d9d0f602e4e1f2fa201d
f805f8ed1cff00eff7d6dce610f8f903
fdcd2a0ee91603f0ef08de07f5091d08
e2070b13d306e2ee0f1b05f6e1123cec
030bced3fcd7e7ee210b0cfae6f1fddc
d1fff0e301e09b40d6fd1c0ff6fad0f8
f6eef90ef0d2e8ffdd0cdef7e3c61105
14140bf8d502f614e5eebffbea3c201d
ffd50306c103ffee07eee61ae72aa803
04ecf41ef204d8fbdf1506f6ece7de05
06f20a0cecded6e9e9fb0e07e9fa2b0d
f4e13ef4c8f4b5e0f115fcceefe80110
e707e3d8ec24e7eab3fd19d1d916e106
17280aeefef211ec02f619daf3df260d
da2de40a1cecedfadcfe10f0e1ea0201
040fe7f3efe92aff03e4f91befe0e6ef
060e0b383524f1e7f1f804ed07d904f6
e5d70fed220902e7d4f3dcfa17e9f3dd
e4fdf30121150ac42420e9defbf3bcdb
deffe0d716cdecdb2504fae42fdef5b1
36ffdde11402c822f612fad7fcf0ee0d
11f0f4cdca0cf800f911dde1ed01f3f5
211015f8d6faedf1e00bf6fdf5cc00d7
cae6ed31dce80d11eac51710edffe9d9
e700e006dfe2ead91b06baf1ef132717
06ee02050d0fe51f1cef11260d0c05d4
f6e0fe1ee5b018f6d900f713fc1de6d8
f6ea11fae40fc10905fbddfc03e005eb
0bf5fe39da02dbfd19e30e1504fff835
e9d21614001a02d9f812e3ebe107e1f0
bdd01ce5f024f2150aef0a1b0efa2401
feccfb13fce1b1f9ecf4fafae1af23fc
f214f3060d03e7e7e40718d9f6fa29df
d1e9f8d8daf7e02209151cfee6dbc7e6
0ce2e8f50302f504efe231e8eae6f7f7
17fcbcfc2dd9e0f2f40818140d15fdfc
25f4c116dce21639e1e907ea03f7edf5
f5c6f7fa1ced06fb0a05e71af6e9f1e3
f3fbe4c4ecd8e3abf1fef721f9e9f72f
1f20050dd015f1febbf01bf4e913f63e
dd050a19fc1d03f9f1f5f60fe0eee223
de13ff38f2f010f4f2eee5ff12c710f5
d9f7ffec3ddee5f3f7e5221114d2f1c5
eff70df4f3f4f6eb0c00fbd90c34d2f9
d51f0725fe29e5d2401a06f9d81fd402
dec238f31fea221746f1f9d601eedeec
b505f205fbfefd0416c8be010318f8dd
efe8c1eaeaeefcd4f0fadcf7d4e1b5ca
0ef314d7020a01d217e4e1d8c90df0ff
e2e4d4f9cafaf3d50ff3f5f2f4e70b1e
15b8c701f4f0ea00c206f2e7b2e2dcc8
2219e3eec2fdbb16e217cfe5d9f6f710
11cee018e5fd20d7c004efc8c8fdbc05
1ee6f30a140a2ec80ad40ad916f7dc00
c7d3da0de2dee5efcaf5e800ea0cdfe4
f3fefd19e5e6ac01fb14eec8fe29d006
0c28e3e7e6e1ee0e1a1902e4013ac422
020a2df9ffbfebeed11cd426dd01f4f8
eede1a0721f3dc0c1ef4071e05251d12
0cf104d90beddf1418f8e9e301f01cec
d80cc6dd0bfbd61d290714d2ffe9e7f1
f4f915f9e0ff0119241aefed2e090401
0fe9f7fddcf4ec03f4140dfe0afde4fe
08dfd414dbf103f0d5f90cf10d03fbf7
d8f4e2e2e702f0daff09b911f1f9c2de
c206dcbd13022cf3e20d051e1ad40be7
f8e8f338d2fcf000d4dff2f4d8f7c80b
feedf528eedaddd0eff6cdda00fcf610
1cf5deeafafbfb00c2efdcf9e90bfa1c
f6f3f8dc08c516c01818210919f7e8f6
f8d6f5ed31f9eff9dc24fcfaf2130bb6
ff1815cc280f05e5e5e7f1d7e5fe10e1
f1b8b6dbe2f91aeb0a34d40a0ae21ad3
00f704f2150f00f3d2c8e7bdd626e9ee
fbe803f82ae7f4f1f5c304e515e9f6dc
cef315ec1cfdf10816d80409f30edb0a
f2e51140120a0ddef0f6450febf908d3
00d3000506dd0e10de051d10dbfae8e5
d00520142204dcc3ecf0c4d4eceabff0
f5f7d2e13ce7160be4ead92be7efeadd
f8f7002ad9f308b90c12d8f91907ed0b
e7000b07d8f01ce2f0d8fbfbe60b0ae4
fc11d30ffeedf107f50efef3dd0419f0
11fcebd40dfe13c2cfe316ebedf615f2
eef2d21de70416f604f6ec0c20fb2de8
021202facd2401e8ffecff2f22020407
f902f91dffebea0e12e30115030bc7f7
05ffef0bd7f91e0bf3db1cfee2ed07d7
f518f126efe502f60ff0110be813c317
24e305ea3813eafe1cf51adaeb20fa0e
ded6dff2ddfa03f0032212cb07fbe3cd
b7f8fdf1f113d2c7de22eef4f60b13fc
05fef7ebe4f5f1f5f4ebbfefe9200235
08ee17ccc4e4dfec1b2418f60febf3fe
dbe0d8cb1221cf25e2c402e8ed14f9e6
25eadad4161bf41002def41cf8f3dd12
f0ec0ffefae120301af6dbe6e40111ee
e6eefdecfc06f1eadd0f11e520c0f6e8
f6d0f9f709f4bc04c30f161308bdedbd
130608f42bf82b0018ff1118e9f31ddf
091e0f11daf1f2e0b5ef0a15e3e4ff05
dce1f2182511ee0d082ae0fbe0cbddd5
10bc22ed17f2d62fe3ecfce9ffd80d16
18d2fe0cd9f50ffdbfeff5d6faf1d80a
d6e605ed0507dcf7110e0ccfffeef7dc
03ef09fa0be61905fcfa13defc07c2de
27fffa20ceedfb010ef809fadd09ec03
e7d1dee9230c17d211220012f923dae2
1610fecf12d90af2e6dff2dbe8d002eb
14d8e0e4edc0df2402f6eedbf2cb1100
dcb8fa002604eb07c41adc0119e11fde
